'<pad>_'
'<EOS>_'
'the_'
' , _'
' ._'
'to_'
'and_'
'-_'
'of_'
'a_'
'Cisco_'
'for_'
'in_'
'is_'
'._'
' ( _'
'on_'
'that_'
' / _'
'The_'
'with_'
'or_'
'you_'
'are_'
'be_'
'network_'
' : _'
'can_'
'as_'
'your_'
's_'
'from_'
' ) _'
'an_'
'1_'
'by_'
'will_'
'this_'
'not_'
' :_'
'2_'
'_'
'IP_'
'0_'
' ’ _'
'have_'
' )_'
'access_'
'data_'
'it_'
'address_'
' ?_'
'at_'
'all_'
'information_'
'use_'
'This_'
'more_'
'router_'
'service_'
'services_'
'business_'
'A_'
'has_'
'3_'
'Unified_'
'new_'
' . _'
'time_'
'support_'
'If_'
'configuration_'
'interface_'
'4_'
'using_'
'which_'
'security_'
'server_'
'In_'
'number_'
'their_'
'You_'
'used_'
'devices_'
'any_'
'one_'
'10_'
'switch_'
'port_'
'other_'
' - _'
'To_'
'device_'
'SP_'
'up_'
'user_'
'based_'
'must_'
'Services_'
'system_'
'For_'
'only_'
'if_'
'call_'
'customer_'
'through_'
'when_'
'5_'
'management_'
'also_'
'Service_'
'such_'
'Network_'
'each_'
'Series_'
'applications_'
'into_'
'command_'
'Partner_'
'video_'
'IT_'
'may_'
'available_'
' ) ._'
'following_'
' \u _'
'customers_'
'Click_'
'traffic_'
'routing_'
'provide_'
'solution_'
'they_'
' ; _'
'these_'
'end_'
'provides_'
'need_'
'how_'
'Ethernet_'
'between_'
'users_'
'application_'
'help_'
' = _'
'click_'
'we_'
'performance_'
'about_'
'should_'
' — _'
'ONSITE_'
'two_'
'configured_'
'phone_'
'networks_'
'than_'
'UCS_'
'solutions_'
'set_'
'SW_'
'do_'
'I_'
'been_'
' – _'
'its_'
' ) , _'
'It_'
'wireless_'
' '_'
'infrastructure_'
'software_'
' “ _'
'over_'
'com_'
'Security_'
'Select_'
'default_'
'no_'
'see_'
'VLAN_'
'name_'
'list_'
'technology_'
'cloud_'
'center_'
'addresses_'
'Internet_'
'process_'
'value_'
'same_'
'802_'
'Server_'
'When_'
'6_'
'link_'
'line_'
',_'
'but_'
'was_'
'Access_'
'Use_'
'example_'
'ports_'
'What_'
'message_'
'Manager_'
'Data_'
'8_'
' " _'
'our_'
'products_'
' & _'
'including_'
'control_'
' + _'
'does_'
'Please_'
'file_'
'then_'
'host_'
'switches_'
'required_'
'power_'
'n_'
'button_'
'partners_'
'cost_'
'web_'
'single_'
'mode_'
'route_'
'table_'
'high_'
'both_'
'within_'
'features_'
'level_'
' ” _'
'type_'
'configure_'
'select_'
'contact_'
'Business_'
'IOS_'
'Catalyst_'
'SMARTNET_'
'want_'
'ID_'
'different_'
'page_'
'so_'
'LAN_'
'100_'
'order_'
'multiple_'
'Center_'
'7_'
'needs_'
'first_'
'e_'
'voice_'
'partner_'
'connection_'
'Communications_'
'requirements_'
'Configuration_'
'enable_'
'VPN_'
'company_'
'key_'
'while_'
'routers_'
'Svc_'
'product_'
'enter_'
'cisco_'
'per_'
'servers_'
'resources_'
'across_'
'out_'
'next_'
'capabilities_'
'client_'
' % _'
'work_'
'virtual_'
'create_'
'System_'
'( _'
'policy_'
'remote_'
'there_'
'mobile_'
'allows_'
'local_'
'connected_'
'include_'
'collaboration_'
'point_'
'specific_'
'view_'
'change_'
'Nexus_'
'experience_'
'Configure_'
'WAN_'
'where_'
'interfaces_'
'Enter_'
'most_'
'protocol_'
'group_'
'User_'
'make_'
'All_'
'IPS_'
'Cloud_'
'them_'
'ing_'
'existing_'
'Management_'
'would_'
'Customer_'
'IPv6_'
'8X5XNBD_'
'design_'
'calls_'
'show_'
'email_'
'B_'
'Your_'
'secure_'
'Layer_'
'able_'
'add_'
'what_'
'Router_'
' \\ _'
'feature_'
' [ _'
'E_'
'costs_'
'connectivity_'
'systems_'
'down_'
'deployment_'
'password_'
'Port_'
'messages_'
'S_'
'field_'
'● _'
'connect_'
'9_'
'many_'
'enterprise_'
'additional_'
'8X5X4_'
'As_'
'We_'
'Software_'
'destination_'
'SV_'
'C_'
'platform_'
'enabled_'
'well_'
'before_'
'd_'
'current_'
'packet_'
'Support_'
'With_'
'without_'
'24_'
'communications_'
'X_'
'24X7X4_'
'cannot_'
'w_'
'selected_'
'cable_'
'tools_'
'options_'
'now_'
'How_'
'settings_'
't_'
'window_'
'www_'
'three_'
'best_'
'- _'
'Name_'
'changes_'
'These_'
'MAC_'
'Add_'
'Video_'
'Wireless_'
'because_'
'uses_'
'complete_'
'Switch_'
'16_'
'hardware_'
'go_'
'No_'
'layer_'
'bandwidth_'
'status_'
'R1_'
'environment_'
'x_'
'some_'
'physical_'
'ed_'
'way_'
'storage_'
'PC_'
'New_'
'location_'
'who_'
'being_'
'organization_'
'Smart_'
'Web_'
'like_'
'integrated_'
'OSPF_'
'part_'
'sales_'
'architecture_'
'administrator_'
'offers_'
'24X7X2_'
'source_'
'Collaboration_'
'standard_'
'subnet_'
'Protocol_'
'deliver_'
'employees_'
'Program_'
'range_'
'right_'
'AR_'
'full_'
'take_'
'option_'
'technologies_'
'allow_'
'Address_'
' : / / _'
' ® _'
'model_'
'“ _'
'media_'
'TelePresence_'
'ensure_'
'manage_'
'another_'
'appropriate_'
'networking_'
'http_'
'during_'
'On_'
'choose_'
'global_'
'There_'
'content_'
'state_'
'site_'
'Call_'
'authentication_'
'were_'
'Phone_'
'Figure_'
'organizations_'
'associated_'
'market_'
'computer_'
'display_'
'running_'
'20_'
'program_'
'12_'
'Group_'
'Step_'
'after_'
'supports_'
'provided_'
'Power_'
'displays_'
'Solution_'
'designed_'
'via_'
'EIGRP_'
'packets_'
'Microsoft_'
'includes_'
'ACL_'
'ASA_'
'percent_'
'192_'
'benefits_'
'R2_'
'meet_'
'industry_'
'connections_'
'case_'
'screen_'
'protocols_'
'DHCP_'
'area_'
'sent_'
' > _'
'please_'
'unified_'
'automatically_'
'An_'
'shown_'
'increase_'
'30_'
'domain_'
'types_'
'section_'
'Quote_'
'Number_'
'meeting_'
'enables_'
'virtualization_'
'frame_'
'Application_'
' ' _'
'desktop_'
'commands_'
'either_'
'168_'
'speed_'
'providing_'
'Information_'
'Table_'
'Note_'
'added_'
'policies_'
'version_'
'get_'
'Module_'
'operating_'
'important_'
'Which_'
'offer_'
'office_'
'Contact_'
'team_'
'equipment_'
'critical_'
'Control_'
'details_'
'receive_'
'active_'
'tab_'
'Partners_'
'small_'
'future_'
'back_'
'directly_'
'Enterprise_'
'request_'
'availability_'
'report_'
'hosts_'
'open_'
'Gigabit_'
'000_'
'From_'
'gateway_'
'send_'
'could_'
'reduce_'
'tool_'
'US_'
'issues_'
'ability_'
'those_'
'supported_'
'under_'
'g_'
'static_'
'Order_'
'require_'
'account_'
'box_'
'IPv4_'
'total_'
'created_'
'below_'
'path_'
'D_'
'routes_'
'operations_'
'productivity_'
're_'
'already_'
'delivery_'
'Advanced_'
'Device_'
'mail_'
'numbers_'
'today_'
'By_'
'addition_'
'View_'
'quality_'
'party_'
'verify_'
'deal_'
'public_'
'press_'
'own_'
'check_'
'RETURN_'
'technical_'
'problem_'
'Voice_'
'License_'
'50_'
'REPAIR_'
'topology_'
'people_'
'operational_'
'branch_'
'needed_'
'Policy_'
'Create_'
' ,_'
'points_'
'components_'
'sure_'
'determine_'
'module_'
'approach_'
'communication_'
'class_'
'possible_'
'Only_'
'requires_'
'Global_'
'place_'
'internal_'
'date_'
'steps_'
'large_'
'ping_'
'Next_'
'Express_'
'plan_'
'Channel_'
'real_'
'shows_'
'mobility_'
'TCP_'
'. _'
'assigned_'
'agent_'
'DNS_'
'helps_'
'error_'
'Routing_'
'End_'
'1000_'
'non_'
'G_'
'training_'
'AC_'
'private_'
'entry_'
'T_'
'updates_'
'installed_'
'better_'
'displayed_'
'Using_'
'correct_'
'One_'
'BASE_'
'share_'
'search_'
'SFP_'
'provider_'
'BYOD_'
'figure_'
'Virtual_'
'valid_'
'SAS_'
'Technology_'
'top_'
'processes_'
'start_'
' $ _'
'Verify_'
'Type_'
' ] _'
'HW_'
'less_'
'Time_'
'session_'
'Interface_'
'day_'
'identify_'
'After_'
'VLANs_'
'rate_'
'CCW_'
'improve_'
'tasks_'
'Onsite_'
'List_'
'Product_'
'Sales_'
'event_'
'Do_'
'quote_'
'255_'
'test_'
'integration_'
'Fabric_'
'necessary_'
'just_'
'opportunities_'
'investment_'
'Secure_'
'continue_'
'lines_'
'clients_'
'WebEx_'
'mask_'
'license_'
'ip_'
'40_'
'whether_'
'switching_'
'currently_'
'15_'
'every_'
'advanced_'
'profile_'
'11_'
'defined_'
'output_'
'Switches_'
'generation_'
'Windows_'
'found_'
'Deal_'
'off_'
'successfully_'
'shared_'
'protection_'
'flexibility_'
'URL_'
'common_'
'growth_'
'corporate_'
'us_'
'here_'
'menu_'
'environments_'
'world_'
'links_'
'serial_'
'upgrade_'
'problems_'
'advantage_'
'even_'
'form_'
'Unity_'
'NAT_'
'maximum_'
'match_'
'run_'
'Bundle_'
'AP_'
'SVC_'
'See_'
'received_'
'Packet_'
'quickly_'
'functions_'
'Integrated_'
'home_'
'fabric_'
'Solutions_'
'third_'
'text_'
'companies_'
'core_'
'Mobile_'
'size_'
'phones_'
'lower_'
'Settings_'
'SIP_'
'configurations_'
'computing_'
'space_'
'external_'
'M_'
'results_'
'Workspace_'
'made_'
'four_'
'update_'
'ESSENTIAL_'
'log_'
'easy_'
'Email_'
'Set_'
'y_'
'operation_'
'specified_'
'files_'
'conference_'
'However_'
'appliance_'
'Each_'
'effective_'
'China_'
'memory_'
'firewall_'
'portfolio_'
'They_'
'find_'
'25_'
'monitoring_'
'image_'
'channel_'
'ISP_'
'opportunity_'
'items_'
'Change_'
'chassis_'
'High_'
'es_'
'year_'
'activity_'
'SA_'
'Frame_'
'second_'
'scale_'
'strategy_'
'basic_'
'higher_'
'capacity_'
'providers_'
'again_'
'my_'
'172_'
'very_'
'leading_'
'models_'
'Architecture_'
'demand_'
'And_'
'result_'
'Mobility_'
'build_'
'PoE_'
'Enable_'
'audio_'
'Media_'
'$ _'
'delete_'
'related_'
'areas_'
'Connect_'
'QoS_'
'managed_'
'apply_'
'built_'
'together_'
'r_'
'Systems_'
'role_'
'means_'
'Edit_'
'troubleshooting_'
'UC_'
'database_'
'greater_'
'last_'
'questions_'
'efficiency_'
'Gbps_'
'48_'
'standards_'
'deploy_'
'lab_'
'R3_'
'Essential_'
'Base_'
'primary_'
'learn_'
' ..._'
'Chassis_'
'individual_'
'Not_'
'perform_'
'Guide_'
'Are_'
'wired_'
'course_'
'addressing_'
'know_'
'Remote_'
'delivers_'
'unique_'
'SDM_'
'drop_'
'At_'
'action_'
'Design_'
'Choose_'
'long_'
'forward_'
'Point_'
'Client_'
'document_'
'entire_'
'dynamic_'
'shall_'
'challenges_'
'console_'
'modules_'
'Is_'
'ASR_'
'still_'
'Options_'
'format_'
'risk_'
'years_'
'm_'
'reach_'
'IronPort_'
'directory_'
'Fast_'
'Computing_'
'businesses_'
'Relay_'
'Connection_'
'install_'
'method_'
'implementation_'
'online_'
'Press_'
'levels_'
'OS_'
'Total_'
'O_'
'making_'
'bits_'
'installation_'
'might_'
'HD_'
'setting_'
'included_'
'bit_'
'working_'
'step_'
'ISR_'
'visibility_'
'DC_'
'functionality_'
'times_'
'personal_'
'Users_'
'Office_'
'price_'
'contains_'
'become_'
'Infrastructure_'
'move_'
'Status_'
'Lic_'
' . )_'
'P_'
'various_'
'Check_'
'minutes_'
'Connected_'
'employee_'
'Networks_'
'locations_'
'Host_'
'Small_'
'visit_'
'outside_'
'Error_'
'review_'
'reports_'
'dial_'
'values_'
'Value_'
'comprehensive_'
'Line_'
'trunk_'
'above_'
'return_'
'card_'
'specify_'
'lists_'
'File_'
'groups_'
'deployments_'
'icon_'
'innovation_'
'building_'
'several_'
'R_'
'days_'
'Report_'
'CM_'
'transfer_'
'hours_'
'seconds_'
'highly_'
'Tool_'
'competitive_'
'separate_'
'Performance_'
'priority_'
'contract_'
' . ”_'
'development_'
'students_'
'conferencing_'
'Appliance_'
'faster_'
'enabling_'
'broadcast_'
'N_'
'processing_'
'response_'
'Gateway_'
'least_'
'ACLs_'
'increased_'
'capability_'
'flexible_'
'Standard_'
'low_'
'deployed_'
'save_'
'knowledge_'
'Link_'
'staff_'
'Configuring_'
'project_'
'CLI_'
'entered_'
'terms_'
'limited_'
'until_'
'browser_'
'look_'
'H_'
'Agreement_'
'Message_'
'Key_'
'called_'
'impact_'
'rules_'
'endpoints_'
'hold_'
'disabled_'
'centers_'
'encryption_'
'Wi_'
'Profile_'
'Home_'
'traditional_'
'allowed_'
'GE_'
'wide_'
'energy_'
'period_'
'compliance_'
'blade_'
'known_'
'communicate_'
'Fi_'
'half_'
'Central_'
'Desktop_'
'flow_'
'messaging_'
'issue_'
'potential_'
'Engine_'
'WLAN_'
'series_'
'Account_'
'FOR_'
'en_'
'HTTP_'
'slot_'
'later_'
'located_'
'Search_'
'drive_'
'manager_'
'appears_'
'fields_'
'More_'
'sites_'
'Agent_'
'describes_'
'applied_'
'root_'
'W_'
'Lab_'
'html_'
'8x5x4_'
'00_'
'Auto_'
'remove_'
'much_'
'often_'
'base_'
'person_'
'answer_'
'understand_'
'easily_'
'VMware_'
'rule_'
'migration_'
'scalable_'
'further_'
'scalability_'
'function_'
'contain_'
'Start_'
'hour_'
'planning_'
'Jabber_'
' !_'
'overall_'
'listed_'
'focus_'
'config_'
'Save_'
'Part_'
'given_'
'Open_'
'interval_'
'etc_'
'characters_'
'amount_'
'analysis_'
'ways_'
' . ] ] >_'
'simple_'
'Telnet_'
'Upgrade_'
'V_'
'efficient_'
'revenue_'
'forwarding_'
'decision_'
'Up_'
'term_'
'delivered_'
'rack_'
'32_'
'PC1_'
'500_'
'TFTP_'
'creating_'
'load_'
'Tracer_'
'8x5xNBD_'
'applicable_'
'against_'
'configuring_'
'Virtualization_'
'Customers_'
'five_'
'Default_'
'Borderless_'
'Single_'
'ready_'
'U_'
'around_'
'Based_'
'F_'
'longer_'
'left_'
'Rack_'
'significant_'
'Source_'
'copy_'
'IM_'
'Because_'
'major_'
'entries_'
'code_'
'Version_'
'SNMP_'
'S1_'
'platforms_'
'download_'
'Enhanced_'
'allowing_'
'maintain_'
'Level_'
'resource_'
'CDATA_'
'My_'
'< ! [ _'
'Once_'
'Servers_'
'machine_'
'fully_'
'Any_'
'Date_'
'programs_'
'WAAS_'
'Storage_'
'Content_'
'backup_'
'release_'
'successful_'
'completed_'
'Authentication_'
'task_'
'reducing_'
'due_'
'changing_'
'requests_'
'savings_'
'practices_'
'main_'
'60_'
'Now_'
'presence_'
'item_'
'distribution_'
'Networking_'
've_'
'[ _'
'Active_'
'bundle_'
'64_'
'going_'
'6500_'
'agents_'
'Technical_'
'sharing_'
'complexity_'
'parameters_'
'country_'
'Class_'
'IEEE_'
'implement_'
'VTP_'
'updated_'
'purchase_'
'keep_'
'cluster_'
'GB_'
'inside_'
'identified_'
'always_'
'offering_'
'2012_'
'RIP_'
'monitor_'
'consistent_'
'Commerce_'
'provisioning_'
'Firewall_'
'increasing_'
'events_'
'SPBASE_'
'LDAP_'
' # _'
'header_'
'attached_'
'Summary_'
'Site_'
'Company_'
'activities_'
'Provides_'
'Review_'
'virtualized_'
'i_'
'ARP_'
'reliability_'
'incoming_'
'So_'
'Features_'
'relevant_'
'record_'
'11n_'
'room_'
'Card_'
'appear_'
'Operations_'
'frames_'
'Other_'
'threats_'
'skills_'
' @ _'
'Local_'
'11a_'
'similar_'
'Edition_'
'ly_'
'TCO_'
'Presence_'
'supply_'
'Identify_'
'P2_'
'initial_'
'Some_'
'anywhere_'
'subnets_'
'makes_'
'connecting_'
' | _'
'latest_'
'Devices_'
'login_'
'particular_'
'2013_'
'Details_'
'er_'
'Mode_'
'distance_'
'Two_'
'radio_'
'filter_'
'typically_'
'cases_'
'Routers_'
'Basic_'
'protect_'
'summary_'
'digital_'
'CIC_'
'Party_'
'notification_'
'self_'
'failure_'
'Provide_'
'VM_'
'changed_'
'Directory_'
'maintenance_'
'try_'
'24x7x4_'
'length_'
'Why_'
'effectively_'
'Can_'
'purpose_'
'setup_'
'cables_'
'follow_'
'previous_'
'free_'
'sends_'
'practice_'
'recommended_'
'intelligence_'
'guide_'
'clicking_'
'supporting_'
'complex_'
'Dual_'
'adding_'
'CPU_'
'bridge_'
'Generation_'
'expertise_'
'rich_'
'edit_'
'learning_'
'Domain_'
'5500_'
'direct_'
'indicates_'
'delivering_'
'teams_'
'sending_'
'Route_'
'vendor_'
'reliable_'
'Branch_'
'refer_'
'saved_'
'Page_'
'vendors_'
'Activity_'
'pricing_'
'Linksys_'
'having_'
'administrators_'
'200_'
'Supplier_'
'prompt_'
'along_'
'map_'
'Setup_'
'Managed_'
'sell_'
'workers_'
'variety_'
'offices_'
'Help_'
'social_'
'SSL_'
'Blade_'
'* _'
'benefit_'
' , ” _'
'usage_'
'detailed_'
'prevent_'
'Products_'
'Ports_'
'Additional_'
'USB_'
'Platform_'
'description_'
'Applications_'
'play_'
'medium_'
'cabling_'
'PCs_'
'ng_'
'attacks_'
'Yes_'
'Controller_'
'City_'
'coverage_'
'node_'
'manually_'
'had_'
'SSH_'
' ‘ _'
'assign_'
'resolution_'
'o_'
'PS_'
' \\ " _'
'few_'
'2010_'
'skill_'
'2960_'
'Provider_'
'pool_'
' -_'
'Personal_'
'Install_'
'ISE_'
'optional_'
'Test_'
'contacts_'
'Dynamic_'
'conditions_'
'neighbor_'
'extended_'
'looking_'
'financial_'
'errors_'
'upon_'
'Release_'
'Make_'
'SMB_'
'Invalid_'
'Integration_'
'aware_'
'ICM_'
'HP_'
'achieve_'
'Delete_'
'intelligent_'
'campus_'
'controller_'
'present_'
'approved_'
'choice_'
'Serial_'
'success_'
'centralized_'
'multicast_'
'good_'
'documentation_'
'cause_'
'Intel_'
'Hardware_'
'RAM_'
'improved_'
'bring_'
'Plan_'
'operate_'
'Switching_'
'assets_'
'enhanced_'
'MCS_'
'multi_'
'Training_'
'position_'
'Mbps_'
'community_'
'segment_'
'side_'
'reference_'
'edge_'
'threat_'
'Supply_'
'agility_'
'Traffic_'
'Non_'
'logical_'
'First_'
'extension_'
'instead_'
'PPP_'
'b_'
'SKU_'
'45_'
'transmission_'
'managing_'
'discount_'
'Task_'
'L_'
'reporting_'
'redundancy_'
'fixed_'
'innovative_'
'tree_'
'Overview_'
'WS_'
'minimum_'
'ESS_'
'testing_'
'prior_'
'correctly_'
'close_'
'CSSP_'
'block_'
'failed_'
'GHz_'
'fiber_'
'workspace_'
'combination_'
'marketing_'
'l_'
'developed_'
'Top_'
' . \\ _'
'Experience_'
'sessions_'
'names_'
'dedicated_'
'transition_'
'pre_'
'Cable_'
'enterprises_'
'define_'
'certification_'
'responsible_'
'll_'
'indicate_'
'Communicator_'
'special_'
'job_'
'context_'
'Area_'
'NBD_'
'Password_'
'hop_'
'encapsulation_'
'13_'
'grow_'
'cards_'
'flash_'
'Aironet_'
'Cost_'
'14_'
'give_'
'redundant_'
'done_'
'meetings_'
'strategic_'
'computers_'
'username_'
'exist_'
'passwords_'
'Discovery_'
'APP_'
'throughout_'
'deleted_'
'methods_'
'begin_'
'MDS_'
'endpoint_'
'Dial_'
'Corporate_'
'80_'
'UDP_'
'reduced_'
'transport_'
'telephone_'
'once_'
'original_'
'auto_'
'Multiple_'
'17_'
'did_'
'While_'
'SUPP_'
'University_'
'CCX_'
'gain_'
'SAN_'
'corresponding_'
'Request_'
'read_'
'T1_'
'Our_'
'18_'
'Academy_'
'proxy_'
'c_'
'certain_'
'established_'
'establish_'
'countries_'
'clear_'
'beyond_'
'Tier_'
'Director_'
'receives_'
'easier_'
'component_'
'Care_'
'develop_'
'instructions_'
'ordering_'
'licenses_'
'statement_'
'me_'
' % ( _'
'generated_'
'Physical_'
'Meeting_'
'Core_'
'turn_'
'Mail_'
'Play_'
'distributed_'
'goals_'
'optimization_'
'offerings_'
'hostname_'
'Update_'
'topic_'
'highest_'
'Assign_'
'tunnel_'
'million_'
'Items_'
'fast_'
'assessment_'
'IBM_'
'government_'
'certificate_'
'since_'
'question_'
'receiving_'
'approval_'
'Market_'
'smart_'
'reduces_'
'Feature_'
'SAP_'
'EXEC_'
'FTP_'
'startup_'
'HSBC_'
' { _'
'Easy_'
'Team_'
'Location_'
'exchange_'
'Static_'
'target_'
'AM_'
'website_'
'unit_'
'Price_'
'latency_'
'previously_'
'modify_'
'Troubleshooting_'
'helping_'
'accelerate_'
'elements_'
'PAL_'
'input_'
'accept_'
'Event_'
'growing_'
'connects_'
'converged_'
'template_'
'Process_'
'Spam_'
'Model_'
'Upg_'
'throughput_'
'simplify_'
'Describe_'
'Available_'
'average_'
'months_'
'accounts_'
'family_'
'travel_'
'STP_'
'State_'
'Option_'
'pages_'
'upgrades_'
'telephony_'
'Fibre_'
'ROI_'
'G2_'
'criteria_'
' } _'
'optimized_'
'United_'
'Assessment_'
'true_'
'Quick_'
'disable_'
'demands_'
'obtain_'
'takes_'
'desk_'
'7000_'
'selection_'
'Share_'
'survey_'
'extend_'
'consider_'
'Displays_'
'5000_'
'Opportunity_'
'others_'
'occur_'
'controls_'
'UCSS_'
'Fa0_'
'limit_'
'portion_'
'implemented_'
'MeetingPlace_'
'research_'
'dialog_'
'consumption_'
'Tools_'
'2011_'
'buttons_'
'signal_'
'Transfer_'
'volume_'
'RF_'
'Delivery_'
'voicemail_'
'stored_'
' ? _'
'his_'
'machines_'
'S2_'
'ATM_'
'2000_'
'works_'
'simply_'
'basis_'
'Marketing_'
'Today_'
'subject_'
'Internal_'
'Registered_'
'SMTP_'
'track_'
'column_'
'Benefits_'
'eligible_'
'HQ_'
'Administration_'
'guest_'
'agreement_'
'SMARTnet_'
'according_'
'90_'
'conversation_'
' ]_'
'learned_'
'generate_'
'lead_'
'Resources_'
'dual_'
'usually_'
'resolve_'
'camera_'
'SAU_'
'general_'
'Public_'
'sequence_'
'Migration_'
'removed_'
'depending_'
'becomes_'
'register_'
'participants_'
'Full_'
'Development_'
'described_'
'custom_'
'Exchange_'
'300_'
'things_'
'records_'
'placed_'
'Contract_'
' ) : _'
'recipient_'
'density_'
'deals_'
'Many_'
'Deployment_'
'face_'
'Example_'
'satisfaction_'
'GUI_'
'store_'
'foundation_'
'offered_'
'instant_'
'considered_'
'Before_'
'Action_'
'Supervisor_'
'he_'
'Ordering_'
'Kit_'
'malware_'
'filtering_'
'exit_'
'respond_'
'integrate_'
'utilization_'
'duplex_'
'attack_'
'tables_'
'expected_'
'Q_'
'selling_'
'M3_'
'expenses_'
'ownership_'
'Calls_'
'channels_'
'automation_'
'registered_'
'calling_'
'Multi_'
'gives_'
'capture_'
'Work_'
'investments_'
'month_'
'creates_'
'powerful_'
'managers_'
'deploying_'
'Find_'
'But_'
'immediately_'
'bar_'
'privileged_'
'chapter_'
'don_'
'optimize_'
'slots_'
'handle_'
'Prime_'
'definition_'
'K9_'
'Most_'
'layers_'
'simplified_'
' ;_'
'workloads_'
' ... _'
'capital_'
'administrative_'
'factor_'
' ”_'
'plans_'
'IPCCATP_'
'appliances_'
'rather_'
'come_'
'members_'
'Section_'
'schedule_'
'capable_'
'assistance_'
'id_'
'among_'
'EMC_'
'troubleshoot_'
'experiences_'
'Log_'
'" _'
'framework_'
'Manage_'
'collaborative_'
'decisions_'
'Assistant_'
'sets_'
'Remove_'
'Preferences_'
'Console_'
'Shared_'
'Session_'
'put_'
'E1_'
'properly_'
'orders_'
'Display_'
'4500_'
'loss_'
'FCoE_'
'follows_'
'budget_'
'invalid_'
'effect_'
'Submit_'
'life_'
'index_'
'expand_'
'Learning_'
'dynamically_'
'Go_'
'payment_'
'keys_'
'ACE_'
'submit_'
'member_'
'Main_'
'Case_'
'Anti_'
'1841_'
'registration_'
'Policies_'
'Audio_'
'relationship_'
'bottom_'
'Maximum_'
'Intelligent_'
'42_'
'performed_'
'peer_'
'nodes_'
'Industry_'
'SKUs_'
'About_'
'recording_'
'live_'
'domains_'
'string_'
'outbound_'
' : [ _'
'administration_'
'Increase_'
'profiles_'
'roles_'
'actions_'
'Private_'
'Mod_'
'too_'
'modular_'
'OK_'
'identity_'
'Inc_'
'Fixed_'
'Capital_'
'adoption_'
'9000_'
'queue_'
'actual_'
'NAC_'
'why_'
'understanding_'
'versions_'
'increases_'
'ers_'
'Y_'
'green_'
'reason_'
'portal_'
'Answer_'
'metric_'
'let_'
'automated_'
'however_'
'Phones_'
'experts_'
'Optimization_'
'says_'
'proper_'
'entering_'
'Proxy_'
'Identity_'
'General_'
'Building_'
'exists_'
'Research_'
'trends_'
'study_'
'States_'
'spam_'
'documents_'
'affect_'
'vary_'
'Instructor_'
'Image_'
'materials_'
'central_'
'switched_'
'rates_'
'production_'
'Get_'
'zero_'
'statements_'
'likely_'
'Description_'
'detection_'
'enhance_'
'statistics_'
'p_'
'authorized_'
'lifecycle_'
'language_'
'broad_'
'That_'
'instance_'
'note_'
'Notification_'
'External_'
'AS_'
'adapter_'
'billion_'
'Right_'
'World_'
'Complete_'
'sized_'
'characteristics_'
'rights_'
'Multicast_'
'Destination_'
'Adapter_'
'AnyConnect_'
'Also_'
'taking_'
'terminal_'
'architectures_'
'discounts_'
'category_'
'NetFlow_'
'1000V_'
'spanning_'
'softkey_'
'parts_'
'Show_'
'sign_'
' ) :_'
'nm_'
'Although_'
'plus_'
'TX_'
'Reports_'
'quotes_'
'21_'
'yet_'
'short_'
'processor_'
'hard_'
'collaborate_'
'Flash_'
'professional_'
'Optional_'
'desktops_'
'Best_'
'phase_'
'leaders_'
'encrypted_'
'behavior_'
'Current_'
'Then_'
'duration_'
'Monitor_'
'recovery_'
'compared_'
'segments_'
'larger_'
'regardless_'
'Speed_'
'22_'
'. , _'
'Download_'
'Flexible_'
'NIC_'
'Does_'
'Real_'
'RJ_'
'student_'
'ion_'
'native_'
'enough_'
'logging_'
'Messages_'
'Android_'
'23_'
'regarding_'
'38_'
'Ready_'
'automatic_'
'band_'
'Category_'
'stack_'
'pair_'
'sensitive_'
'hosted_'
'Administrator_'
'wait_'
' • _'
'structure_'
'routed_'
'aggregation_'
'Self_'
'Master_'
'IF_'
'CCNA_'
'Digital_'
'replacement_'
'Requirements_'
'3750_'
'submitted_'
'sources_'
'Xeon_'
'LANs_'
'co_'
'Specify_'
'HTTPS_'
'Distributor_'
'wire_'
'metrics_'
'education_'
'Improve_'
'Net_'
'Learn_'
'K_'
'Copy_'
'combined_'
'front_'
'Rate_'
'VXI_'
'VIP_'
'Here_'
'10G_'
'modem_'
'SSID_'
'therefore_'
'final_'
'care_'
'Points_'
'3G_'
'24x7x2_'
'Project_'
'transform_'
'delay_'
'Tap_'
'Reduce_'
'Memory_'
'parameter_'
'occurs_'
'purposes_'
'GbE_'
'CRS_'
'moving_'
'legacy_'
'fails_'
'really_'
'Quality_'
'trade_'
'presentation_'
'Supports_'
'itself_'
' . , _'
'represents_'
'ongoing_'
'label_'
'PC2_'
'19_'
'identifies_'
'desired_'
'named_'
'convergence_'
'Energy_'
'personnel_'
'ease_'
'disk_'
'written_'
'feedback_'
'remain_'
'query_'
'CVP_'
'Strategy_'
'focused_'
'MPLS_'
'Transport_'
'Reseller_'
'LED_'
'Analysis_'
'unicast_'
'risks_'
'lost_'
'starting_'
'interference_'
'proven_'
'PSTN_'
'DSL_'
'stop_'
'except_'
'Specialization_'
'11g_'
'scheme_'
'detail_'
'Portal_'
'Both_'
'28_'
'describe_'
'creation_'
'implementing_'
'OSI_'
'Distribution_'
'neighbors_'
'initiatives_'
' ] ._'
'specifically_'
'Unit_'
'During_'
'requirement_'
'forwarded_'
'Planning_'
'quarantine_'
'join_'
'templates_'
'logged_'
'TV_'
'Certified_'
'parties_'
'diagram_'
'confirm_'
'Innovation_'
'securely_'
'chat_'
'Communication_'
'6000_'
'projects_'
'Plus_'
'useful_'
'connector_'
'Virus_'
'Wizard_'
'profitability_'
'credentials_'
'Spare_'
'– _'
'designated_'
'avoid_'
'Apply_'
'think_'
'participate_'
'matches_'
'upload_'
'translation_'
'purchased_'
'250_'
'procedures_'
'increasingly_'
'inbound_'
'MM_'
'scenario_'
'pane_'
'15454_'
'architectural_'
'broadband_'
'factors_'
'Hold_'
'worldwide_'
'percentage_'
'embedded_'
'Ensure_'
'engine_'
' < > _'
'touch_'
'manual_'
'comes_'
'Connectivity_'
'validated_'
'selecting_'
'VoIP_'
'Protection_'
'3000_'
'• _'
'examples_'
'SRE_'
'rapidly_'
'premises_'
'launch_'
'efficiently_'
'Out_'
'NAME_'
'2009_'
'stream_'
'k_'
'Redundant_'
'consolidation_'
'ation_'
'property_'
'FC_'
'Build_'
'doing_'
'smaller_'
'improving_'
'Determine_'
'strong_'
'package_'
'Code_'
'past_'
'ask_'
'compute_'
'GM_'
'enforcement_'
'caller_'
'tested_'
'sender_'
'promotion_'
'warranty_'
'trusted_'
'resulting_'
'cross_'
'Monitoring_'
'actually_'
'IPSec_'
'speeds_'
'proposed_'
'paths_'
'otherwise_'
'maintaining_'
'algorithm_'
'opens_'
'count_'
'contracts_'
'occurred_'
'export_'
'onto_'
'accessing_'
'Command_'
'Be_'
'99_'
'taken_'
'requested_'
'128_'
'Social_'
'reset_'
'objectives_'
'represent_'
'departments_'
'beginning_'
'provision_'
'difficult_'
'filters_'
'al_'
'six_'
'ring_'
'expansion_'
'wish_'
'notifications_'
' : % _'
'Config_'
'her_'
'financing_'
'referred_'
'interoperability_'
'Edge_'
'Filter_'
'2008_'
'Increased_'
'debug_'
'Therefore_'
'Extended_'
'Equipment_'
'prefix_'
'Send_'
'Encryption_'
'Conference_'
'BDR_'
' , “ _'
'quick_'
'PSS_'
'Allows_'
'detect_'
'determined_'
'TrustSec_'
'advantages_'
'FE_'
'ever_'
'DR_'
'toward_'
'involved_'
'circuit_'
'alerts_'
'Subnet_'
'Notice_'
'robust_'
'Family_'
'vision_'
'unable_'
'scope_'
'Modules_'
'rapid_'
'MB_'
'bytes_'
'reduction_'
'Field_'
'downtime_'
'covered_'
'Examine_'
'Certification_'
'participant_'
'notice_'
'engineers_'
'Trade_'
'workforce_'
'Wiring_'
'Back_'
'overview_'
'applies_'
'Intercity_'
'reasons_'
'eight_'
'wizard_'
'consumer_'
'Registration_'
'relationships_'
'goal_'
'IVR_'
'RFC_'
'binary_'
'Simple_'
'IoE_'
'IPsec_'
'CD_'
'validate_'
'Availability_'
'great_'
'challenge_'
'Unable_'
'AND_'
'suite_'
'globally_'
'SC_'
'supplies_'
'normal_'
'expect_'
'h_'
'recent_'
'customized_'
'Text_'
'Europe_'
'54_'
'Export_'
'% _'
'instructor_'
'typical_'
'quantity_'
'drives_'
'Entry_'
'discuss_'
'concerns_'
'adds_'
'started_'
'Incentive_'
'BOM_'
'saving_'
'post_'
'minute_'
'Let_'
'Citrix_'
'history_'
'DWDM_'
'scheduled_'
'cycle_'
'STM_'
'SM_'
'equal_'
'Processor_'
'Path_'
'department_'
'TAC_'
'Forward_'
'paper_'
'70_'
' _'
'superior_'
'modes_'
'Tech_'
'27_'
'representative_'
'regular_'
'permit_'
'Common_'
'talk_'
'integrates_'
'HA_'
'arrow_'
'Custom_'
'unless_'
'significantly_'
' * _'
'procedure_'
'XML_'
'authorization_'
'independent_'
'audit_'
'OC_'
'runs_'
'interest_'
'Refer_'
'Database_'
'Closet_'
'missing_'
'light_'
'hub_'
'fewer_'
'ICMP_'
'net_'
'promotions_'
'largest_'
'Continue_'
'licensing_'
'essential_'
'attach_'
'Where_'
'boot_'
'clock_'
'streams_'
'progress_'
'folder_'
'exam_'
'answers_'
'transaction_'
'mission_'
'International_'
'panel_'
'alternate_'
'ONS_'
'Enables_'
'Return_'
'Resource_'
'ecosystem_'
'loop_'
'scenarios_'
'Terms_'
'Guest_'
'markets_'
'26_'
' %_'
'pay_'
'followed_'
'Selected_'
'direction_'
'defines_'
'NX_'
'Mgr_'
'determines_'
'Place_'
'Last_'
'strategies_'
'replace_'
'Creating_'
'Additionally_'
'clouds_'
'Tree_'
'Reporting_'
'POS_'
' "_'
'especially_'
'act_'
'Failed_'
'3560_'
'rs_'
'Enablement_'
'powered_'
'discussion_'
'detected_'
'patterns_'
'Tasks_'
'standalone_'
'chosen_'
'Japan_'
'innovations_'
'Addresses_'
'import_'
'distributor_'
'API_'
'credit_'
'signals_'
'remotely_'
'intended_'
'Year_'
'RADIUS_'
'Everything_'
'balancing_'
'SQL_'
'Quotes_'
'indicated_'
'accurate_'
'mapping_'
'led_'
'Organizations_'
'subscription_'
'seen_'
'Through_'
'English_'
'Another_'
'zone_'
'old_'
'station_'
'simplifies_'
'headset_'
'analog_'
'Filters_'
'sale_'
'Response_'
'Oracle_'
'Addressing_'
'matching_'
'leadership_'
'incorrect_'
'Used_'
'PRE_'
'Primary_'
'EtherChannel_'
'guidelines_'
'RA_'
'Discount_'
'requiring_'
'effort_'
'Max_'
'away_'
'Spanning_'
'Operating_'
'loopback_'
'Sec_'
'Modular_'
' @ @ _'
'proceed_'
'discovery_'
'am_'
'Over_'
'AES_'
'tracking_'
'cache_'
'Messaging_'
'Improved_'
'Fan_'
'recipients_'
'mechanism_'
'compatible_'
'Rx_'
'Quarantine_'
'Organization_'
'matter_'
'assignment_'
'alert_'
'CA_'
'unauthorized_'
'logs_'
'combines_'
'categories_'
'Cancel_'
'listener_'
'expense_'
'certified_'
'OSPFv3_'
'trying_'
'inspection_'
'Track_'
'10GE_'
'proactive_'
'preferred_'
'gateways_'
'Changes_'
'owned_'
'optimal_'
'interactive_'
'Since_'
'Interfaces_'
'red_'
'fact_'
'Portfolio_'
'2014_'
'relay_'
'leverage_'
'extensive_'
'S3_'
'Connections_'
'specifications_'
'ideal_'
'continues_'
'Seat_'
'Practice_'
'Chapter_'
'Bill_'
'week_'
'tests_'
'Topology_'
'sections_'
'lets_'
'Licensing_'
'Education_'
'summarization_'
'flows_'
'35_'
'prepare_'
'designs_'
'character_'
'anytime_'
'Professional_'
'Per_'
'Expert_'
'permitted_'
'accommodate_'
'Reference_'
'enhancements_'
'Three_'
'hybrid_'
'getting_'
'expensive_'
'utility_'
'serve_'
'plug_'
'May_'
'interaction_'
'early_'
'Record_'
'Community_'
'inventory_'
'discussed_'
'SDP_'
'OR_'
'Enabled_'
'consists_'
'extends_'
'emergency_'
'S0_'
'APs_'
'Ping_'
'mount_'
'blank_'
'Intelligence_'
'hear_'
'examine_'
'campaign_'
'assist_'
'Competitive_'
'Certificate_'
'65_'
'little_'
'handling_'
'ICT_'
'preferences_'
'attempt_'
'Menu_'
'white_'
'Take_'
'discover_'
'virus_'
'resiliency_'
'money_'
'economic_'
'Bridge_'
'performing_'
'functional_'
'Direct_'
'carrier_'
'He_'
'Deals_'
'region_'
'never_'
'legal_'
'accessible_'
'Thank_'
'FCC_'
'F0_'
'valuable_'
'reserved_'
'cooling_'
'technician_'
'Target_'
'ADSL_'
'cover_'
'Suite_'
'Centralized_'
'equivalent_'
'SPA_'
'Pricing_'
'Forwarding_'
'Cannot_'
'proprietary_'
'coming_'
'Read_'
'Maintenance_'
'Issue_'
'IPCC_'
'CTI_'
'Authorized_'
'viewing_'
'simultaneously_'
'recorded_'
'CDP_'
'emerging_'
'copper_'
'transparent_'
'migrate_'
'Configurations_'
'Compliance_'
'transmitted_'
'dialing_'
'chain_'
'SS_'
'Buy_'
'spent_'
'recommendations_'
'laptop_'
'individuals_'
'images_'
'RTU_'
'Online_'
'Login_'
'CallManager_'
'Template_'
'ISDN_'
'ESP_'
'manner_'
'far_'
'health_'
'CISCO_'
'controlled_'
'Subscription_'
'blades_'
'supervisor_'
'privacy_'
'transformation_'
'engineer_'
'developing_'
'accessed_'
'productive_'
'mean_'
'deny_'
'31_'
'wiring_'
'protected_'
'compliant_'
'Drive_'
'Confirm_'
'Allow_'
'Builder_'
'pass_'
'firewalls_'
'brings_'
'Attribute_'
'units_'
'anti_'
'REFURBISHED_'
'improves_'
'empty_'
'Challenge_'
'America_'
'leave_'
'backbone_'
'engagement_'
'SE_'
' *_'
'telepresence_'
'contents_'
'blocking_'
'Pack_'
'Groups_'
'whole_'
'secondary_'
'Day_'
' ” ._'
'stay_'
'states_'
'blocks_'
'Existing_'
' ° _'
'hierarchical_'
'Will_'
'Simplified_'
' ) ( _'
'tag_'
'Shipping_'
'Provisioning_'
'H2_'
'maximize_'
'big_'
'\\ _'
'safety_'
'RP_'
'Growth_'
'Extension_'
'Employee_'
'separated_'
'forwards_'
'Offers_'
'HWIC_'
'75_'
'transactions_'
'locate_'
'facilitate_'
'goes_'
'earlier_'
'FastEthernet_'
'Close_'
'Advantage_'
'specifies_'
'commonly_'
'Svr_'
'Programs_'
'Authorization_'
'lot_'
'Flow_'
'archive_'
'RIPv2_'
'scanning_'
'parent_'
'blocked_'
'Welcome_'
'1X_'
'solve_'
'qualified_'
'engineering_'
'Threat_'
'STD_'
'Engineering_'
'Computer_'
'Int_'
'Deliver_'
'tablets_'
'showing_'
'modified_'
'Chinese_'
'Asia_'
'double_'
'Incoming_'
'ITU_'
'remaining_'
'ensures_'
'brief_'
'Low_'
'Ch_'
'say_'
'material_'
'leads_'
'failover_'
'controllers_'
'Have_'
'healthcare_'
'Enabling_'
'laws_'
'cameras_'
'Import_'
'processors_'
'inter_'
'exceed_'
'EnergyWise_'
'issued_'
'Routes_'
'Government_'
'leader_'
'analytics_'
'PBX_'
'Foundation_'
'Demand_'
'hand_'
'collateral_'
'associate_'
'NetApp_'
'returned_'
'Rules_'
'Required_'
'Pre_'
'trunking_'
'Contacts_'
'trunks_'
'interactions_'
'evolving_'
'collection_'
'tone_'
'regulatory_'
'city_'
'Limited_'
'realize_'
'concept_'
'App_'
'secret_'
'enrollment_'
'competitors_'
'advance_'
'Green_'
'situation_'
'internet_'
'Could_'
'52_'
'held_'
'buy_'
'agree_'
'threshold_'
'seamless_'
'lowest_'
'immediate_'
'attributes_'
'attempts_'
'Node_'
'Collaborative_'
'transmit_'
'installing_'
'VCS_'
'Expansion_'
'starts_'
'adjust_'
'CAM_'
' ' , ' _'
'PDF_'
'signature_'
'Board_'
'wants_'
'topics_'
'checkbox_'
'Results_'
'Powered_'
'Campus_'
'professionals_'
'asked_'
'Wide_'
'Method_'
'Drag_'
'CleanAir_'
'malicious_'
'continuous_'
'competition_'
'TO_'
'North_'
' ) - _'
'visual_'
'stage_'
'properties_'
'portlet_'
'Operation_'
'— _'
'frequency_'
'fail_'
'Qty_'
'Offer_'
'Executive_'
'Slot_'
'Size_'
'quoting_'
'firmware_'
'NOT_'
'Reduced_'
'Recipient_'
'Investment_'
'Employees_'
'Button_'
'Appendix_'
'trust_'
'Contracting_'
'purchasing_'
'completing_'
'Whether_'
'PIN_'
'Country_'
'Bandwidth_'
'upper_'
'responsibility_'
'efforts_'
'designer_'
'driving_'
'TDM_'
'Managing_'
'HCS_'
'Department_'
'centric_'
'Comprehensive_'
'retrieve_'
'Linux_'
'ts_'
'difference_'
'PRODUCT_'
'Outbreak_'
'processed_'
'optical_'
'book_'
'Rule_'
'Load_'
'Conditions_'
'priorities_'
'manufacturing_'
'Components_'
'subscriber_'
'handset_'
'Health_'
'smartphones_'
'sample_'
'factory_'
'awareness_'
'President_'
'Post_'
'Operational_'
'Conferencing_'
'Changing_'
'pattern_'
'MOD_'
'yourself_'
'responses_'
'reply_'
'integrity_'
'print_'
'conversations_'
' . ” _'
'refresh_'
'containing_'
'brand_'
'Perform_'
'Document_'
'logo_'
'VLSM_'
'3rd_'
'measure_'
'makers_'
'international_'
'demonstrate_'
'classful_'
'Outlook_'
'Implementation_'
'Fiber_'
'Define_'
'Canada_'
'facilities_'
'vlan_'
'minimize_'
'locally_'
'floor_'
'USA_'
'Gartner_'
'Course_'
'Adding_'
'carry_'
'termination_'
'identifying_'
'introduced_'
'generally_'
'shutdown_'
'respondents_'
'giving_'
'completely_'
'Range_'
'Follow_'
'vector_'
'Properties_'
'PDU_'
'FEX_'
'400_'
'personalized_'
'tap_'
'identification_'
'Disable_'
'le_'
'Tx_'
'Depending_'
'Appliances_'
'approximately_'
'Volume_'
'Survey_'
'Admin_'
'Adaptive_'
'overhead_'
'SD_'
'Opportunities_'
'Forrester_'
'DRAM_'
'shipping_'
'becoming_'
'SaaS_'
'Role_'
'Environment_'
'Capture_'
'CETUS_'
'renewal_'
'PC3_'
'sub_'
'disaster_'
'Who_'
'SRST_'
'DLCI_'
'partial_'
'Explain_'
'ENH_'
'Billing_'
'releases_'
'meets_'
'footprint_'
'B200_'
'reached_'
'lookup_'
'loaded_'
'Schedule_'
'Move_'
'dropped_'
'Verifying_'
'Excel_'
'bookings_'
'IS_'
'1K_'
'title_'
'simplicity_'
'navigation_'
'expert_'
'continuity_'
'calendar_'
'VDI_'
'Backup_'
'though_'
'ons_'
'human_'
'decimal_'
'Job_'
'unavailable_'
'slide_'
'balance_'
'operators_'
'integrating_'
'Context_'
'mark_'
'labs_'
'estimate_'
'Installation_'
'Cluster_'
'TM_'
'promote_'
'pop_'
'ors_'
'guidance_'
'affected_'
'themselves_'
'rooms_'
'prompted_'
'infrastructures_'
'ble_'
'FlexPod_'
'techniques_'
'everything_'
'Protocols_'
' ) ; _'
'vSphere_'
'digits_'
'LWAPP_'
'AIM_'
'reported_'
'outgoing_'
'mandatory_'
'Converged_'
'evolve_'
'commercial_'
'National_'
'Managers_'
'MDM_'
'IDs_'
'BGP_'
'7845_'
'perspective_'
'improvements_'
'targeted_'
'color_'
'mind_'
'expectations_'
'Residential_'
'Premium_'
'Payment_'
'History_'
'08_'
'soft_'
'gets_'
'verification_'
'DHCPv6_'
'Carrier_'
'01_'
'entity_'
'DCE_'
'CC_'
'streaming_'
'800_'
'respect_'
'recommend_'
'MHz_'
'Four_'
'sector_'
'rest_'
'annual_'
'LLDP_'
'organizational_'
'Reset_'
'NVRAM_'
' '
'Bndl_'
'THE_'
'Questions_'
'Lower_'
' . "_'
'warning_'
'activate_'
'Orders_'
'OpEx_'
'prevention_'
'ospf_'
'board_'
'VPNs_'
'Half_'
' ^ _'
'write_'
'begins_'
'Need_'
'Built_'
'120_'
'handled_'
'executive_'
'ends_'
'aspects_'
'Emergency_'
'E3_'
'spare_'
'pdf_'
'midsize_'
'claim_'
'Automation_'
'familiar_'
'driven_'
'Skills_'
'NOTE_'
'2007_'
'depth_'
'Setting_'
'Risk_'
'Financial_'
'DMZ_'
'2001_'
'vs_'
'Broadband_'
'remains_'
'notes_'
'kit_'
'causes_'
'busy_'
'align_'
'ASI_'
'256_'
' , ( _'
'daily_'
'Modulator_'
'HH_'
'3DES_'
'13TXM_'
'f_'
'Hsg_'
'DLP_'
'323_'
', _'
'reseller_'
'limits_'
'dramatically_'
'communities_'
'behalf_'
'Under_'
'restore_'
'places_'
'Accelerate_'
'worker_'
'words_'
'suppliers_'
'maps_'
'engage_'
'bundles_'
'analyze_'
'July_'
'insert_'
'achieved_'
'Launch_'
'she_'
'ipv6_'
'curriculum_'
'Success_'
'II_'
'letters_'
'interested_'
'attachment_'
'10K_'
'navigate_'
'mm_'
'fault_'
'conduct_'
'asset_'
'array_'
'wall_'
'met_'
'letter_'
'Licenses_'
'BE_'
'hot_'
'customize_'
'SLA_'
'Mult_'
'v2_'
'older_'
'incentives_'
'Wireshark_'
'thus_'
'subinterface_'
'positive_'
'facing_'
'driver_'
'advertise_'
'ME_'
'H1_'
'CME_'
'Would_'
'RAID_'
'Implement_'
'straight_'
'considerations_'
'believe_'
'& _'
'spend_'
'normally_'
'alternative_'
'acquisition_'
'CSCC_'
'measures_'
'adapters_'
'Types_'
'PAK_'
'Greater_'
'law_'
'contained_'
'Std_'
'PWR_'
' /_'
'intensive_'
'house_'
'continued_'
'acceleration_'
'Telephony_'
'Outbound_'
'Even_'
'ment_'
'Match_'
'proposal_'
'comply_'
'RMA_'
'Impact_'
'Exploration_'
'Designed_'
'1G_'
'published_'
'courses_'
'Technologies_'
'Promotion_'
'Pool_'
'restart_'
'invoice_'
'Try_'
'< > _'
'validation_'
'soon_'
'mechanisms_'
'depends_'
'Or_'
'Large_'
'Examples_'
'CBN_'
'x86_'
'regulations_'
'ps_'
'electrical_'
'Third_'
'CWDM_'
'laptops_'
'interact_'
'de_'
'Scale_'
'NM_'
'MD5_'
'Instant_'
'performs_'
'authenticate_'
'September_'
'People_'
'Lead_'
'wildcard_'
'refers_'
'prod_'
'improvement_'
'Scenario_'
'Privacy_'
'LIC_'
'roadmap_'
'retail_'
'lack_'
'evolution_'
'agile_'
'Remember_'
'Malware_'
'M2_'
'Approval_'
'waiting_'
'ies_'
'ensuring_'
'addressed_'
'Screen_'
'peripheral_'
'age_'
'T3_'
'Room_'
'Every_'
'sophisticated_'
'destinations_'
'Statistics_'
'Lifecycle_'
'CRM_'
'deep_'
'OC3_'
'Notes_'
'ETSI_'
'Â_'
'timeout_'
'Subject_'
'Supported_'
'India_'
'reputation_'
'hosting_'
'certifications_'
'Map_'
'Grid_'
'7600_'
'150_'
'Broadcast_'
'Ant_'
'autonomous_'
'accepted_'
'Tag_'
'Study_'
'Run_'
'LEDs_'
'script_'
'fit_'
'cut_'
'Plug_'
'thousands_'
'peers_'
'interconnect_'
'initiate_'
'Envelope_'
'165_'
'nearly_'
'Mount_'
'Ability_'
'# _'
'talking_'
'spaces_'
'air_'
'Standards_'
'Optical_'
'Future_'
'Camera_'
'presented_'
'downloaded_'
'TLS_'
'Modify_'
'planned_'
'incremental_'
'force_'
'Live_'
'manages_'
'Providers_'
'E5_'
'AAA_'
'condition_'
'Selling_'
'SHDSL_'
'scroll_'
'Updates_'
'Better_'
' . ) _'
'sizes_'
'ordered_'
'choosing_'
'answered_'
'Surveillance_'
'Input_'
'Automatic_'
'passive_'
'executives_'
'electronic_'
'consistency_'
'completion_'
'Instead_'
'workstation_'
'underlying_'
'signed_'
'instances_'
'LC_'
'Index_'
'7825_'
' ) ?_'
'someone_'
'combine_'
'printer_'
'Tab_'
'Students_'
'Item_'
'Institute_'
'workload_'
'Output_'
'ONLY_'
'Discounts_'
'paid_'
'moved_'
'demonstration_'
'Pacific_'
'36_'
'split_'
'kind_'
'identifier_'
'compatibility_'
'activated_'
'Upload_'
'SW1_'
'MP_'
'Id_'
'trend_'
'scheduling_'
'intrusion_'
'director_'
'directed_'
'convert_'
'behind_'
'PCI_'
'MPEG_'
'headquarters_'
'connectors_'
'Re_'
'ON_'
'matched_'
'checks_'
'billing_'
'TNC_'
'Reach_'
'replaced_'
'efficiencies_'
'denied_'
'Working_'
'Printed_'
'Paper_'
'PAT_'
'CUE_'
'rely_'
'intuitive_'
'initiated_'
'highlighted_'
'ad_'
'Reputation_'
'DSCP_'
'Bluetooth_'
'{ _'
'payments_'
'multimedia_'
'frequently_'
'Trunk_'
'SOW_'
'Disk_'
'209_'
'visible_'
'stadium_'
'permissions_'
'jobs_'
'RS_'
'CYGNUS_'
'yes_'
'something_'
'moves_'
'confirmation_'
'PM_'
'MS_'
'BPDU_'
'ting_'
'Zone_'
'Steps_'
'Hello_'
'Capabilities_'
'sufficient_'
'plays_'
'caused_'
'cancel_'
'29_'
' ( “ _'
'Resale_'
'windows_'
'trademarks_'
'recommends_'
'introduction_'
'Radio_'
'Profiles_'
'Attendant_'
'guides_'
'congestion_'
'Visibility_'
'Panel_'
'NTP_'
'unknown_'
'plane_'
'incident_'
'disruption_'
'Wired_'
'VIC_'
'Co_'
'ACD_'
'queries_'
'differences_'
'Warning_'
'Chat_'
'Java_'
'returns_'
'charge_'
'agreements_'
'Vendor_'
'Priority_'
'Clear_'
'4x_'
'Purchase_'
'ISPs_'
'Connecting_'
'vty_'
'shift_'
'recently_'
'SSM_'
'RTX_'
'IDC_'
'object_'
'codes_'
'apps_'
'IDS_'
'Channels_'
'transferred_'
'distributors_'
'Finally_'
'Book_'
'600_'
' , " _'
'tell_'
'said_'
'prevents_'
'listing_'
'ft_'
'evaluation_'
' ] , _'
'weeks_'
'ringing_'
'loops_'
'collision_'
'1Q_'
'workgroup_'
'te_'
'minimal_'
'Quoting_'
'HR_'
'2T_'
'sheet_'
'max_'
'anyone_'
'adapt_'
'LMI_'
'mouse_'
'marked_'
'Average_'
'whose_'
'lights_'
'keyboard_'
'facility_'
'drivers_'
'accordance_'
'Pt_'
'Join_'
'uniquely_'
'respective_'
'mid_'
'banner_'
'Translation_'
'Compare_'
'Aggregation_'
'tion_'
'near_'
'expression_'
'allocated_'
'Skill_'
'Salesforce_'
'R4_'
'Question_'
'Mask_'
'Gold_'
'Audit_'
' : : _'
'st_'
'ship_'
'execute_'
'eliminating_'
'conjunction_'
'boxes_'
'admin_'
'Without_'
'Usage_'
'CIO_'
'SR_'
'Focus_'
'Costs_'
'syslog_'
'solid_'
'Hosts_'
'Cord_'
'Block_'
'4500E_'
'254_'
'formats_'
'calculated_'
'bringing_'
'bank_'
'TS_'
'Filtering_'
' : \\ _'
'word_'
'websites_'
'mix_'
'lock_'
'almost_'
'WebView_'
'FL_'
'California_'
'3850_'
' " ._'
'regional_'
'readiness_'
'WIC_'
'IGMP_'
'ms_'
'grade_'
'effectiveness_'
'assess_'
'Testing_'
'FirePOWER_'
'Economic_'
'CapEx_'
'ATP_'
'workflow_'
'restricted_'
'borderless_'
'Sharing_'
'Productivity_'
'Band_'
'7835_'
'industries_'
'enforce_'
'Universal_'
'Red_'
'Rapid_'
'Issues_'
'Hosted_'
'verified_'
'protecting_'
'battery_'
'Within_'
'Park_'
'tier_'
'demanding_'
'degree_'
'advertising_'
'XP_'
'Mesh_'
'Consider_'
'stores_'
'imported_'
'element_'
'compelling_'
'Unlike_'
'Query_'
'Implementing_'
'Extender_'
'Ask_'
'APIs_'
'11ac_'
'turned_'
'expanded_'
'environmental_'
'destined_'
'ST_'
'Prevention_'
'Mb_'
'Header_'
'Framework_'
'score_'
'nt_'
'happen_'
'expanding_'
'ahead_'
'NAM_'
'telnet_'
'signaling_'
'reflect_'
'permission_'
'passed_'
'attribute_'
'app_'
'Language_'
'33_'
'2GB_'
'sometimes_'
'fan_'
'cell_'
'Vice_'
'Troubleshoot_'
'Of_'
'Includes_'
'indicating_'
'cash_'
'advertised_'
'White_'
'Minimum_'
'CHAP_'
'AMP_'
'situations_'
'signatures_'
'opening_'
'nature_'
'happens_'
'excellent_'
'evaluate_'
'WEP_'
'GRE_'
'96_'
'headers_'
'expired_'
'Meetings_'
' ] " _'
'VC_'
'Title_'
'Specific_'
'LAG_'
'HANA_'
'DOCSIS_'
'wrong_'
'feel_'
'DTE_'
'11b_'
'surveillance_'
'serves_'
'Queue_'
'sold_'
'keeping_'
'defense_'
'consumers_'
'conducted_'
'Visit_'
'PVDM2_'
'ING_'
'SATA_'
'Problem_'
'PROMOTION_'
'Must_'
'Look_'
'IR_'
' ] ] >_'
'tabs_'
'specialization_'
'notify_'
'separately_'
'seamlessly_'
'medical_'
'demo_'
'Form_'
'1000BASE_'
'workplace_'
'Upon_'
'Events_'
'April_'
'ACI_'
' ' , _'
'ones_'
'closed_'
'adjacency_'
'Develop_'
'1x_'
'doesn_'
'Finance_'
'Approved_'
'operates_'
'inch_'
'forms_'
'designing_'
'classes_'
'Sender_'
'San_'
'Running_'
' ] . _'
' .. _'
'widely_'
'patch_'
'limitations_'
'Tray_'
'Midsize_'
'Long_'
'Incident_'
'Failure_'
'Companies_'
'3af_'
'supplied_'
'maintained_'
'loyalty_'
'explain_'
'RSTP_'
'DCM_'
'Attach_'
'exception_'
'concurrent_'
'Packets_'
'Cards_'
'CTS_'
'55_'
'uptime_'
'ions_'
'Transition_'
'Space_'
'Engineer_'
'temperature_'
'spectrum_'
'recognize_'
'extra_'
'Mandatory_'
'configures_'
'calculate_'
'PCIe_'
'z_'
'translated_'
'released_'
'migrating_'
'exact_'
'RNSD_'
'March_'
'park_'
'gains_'
'emails_'
'distribute_'
'authenticated_'
'1GHz_'
' ! _'
'upgraded_'
'exactly_'
'Files_'
'European_'
'Critical_'
'resilient_'
'checked_'
'UM_'
'Scroll_'
'Machine_'
'Keep_'
'Capacity_'
'2006_'
'sound_'
'socket_'
'primarily_'
'anything_'
'Phase_'
'Optimized_'
'ED_'
'Cat_'
'According_'
'terminate_'
'premise_'
'finished_'
'ted_'
'subinterfaces_'
'SBCS_'
'Hands_'
'HSRP_'
'Bank_'
'AX_'
'whenever_'
'uplink_'
'u_'
'privileges_'
'ic_'
'Google_'
'operator_'
'Traditional_'
'56_'
'national_'
'enters_'
'communicating_'
'commitment_'
'Recording_'
'Explorer_'
'th_'
'editing_'
'confidence_'
'buffer_'
'allocation_'
'Sell_'
'Meet_'
'AsyncOS_'
'upgrading_'
'scaling_'
'row_'
'reload_'
'baseline_'
'alone_'
'OIP_'
'Apple_'
'264_'
'diagnostics_'
'attachments_'
'acceptable_'
'PDR_'
'Knowledge_'
'Documentation_'
'5G_'
'simplifying_'
'prompts_'
'membership_'
'introduce_'
'intercom_'
'importance_'
'eliminate_'
'placing_'
'pace_'
'documented_'
'antenna_'
'Understanding_'
'Quad_'
'Navigation_'
'Links_'
'resolved_'
'confidential_'
'Register_'
'Failover_'
'Did_'
'thereby_'
'consolidate_'
'choices_'
'certificates_'
'byte_'
'assistant_'
'WLC_'
'Valid_'
'Touch_'
'Format_'
'thing_'
'maintains_'
'implementations_'
'checking_'
'body_'
'SFS_'
'views_'
'specialized_'
'recognized_'
'particularly_'
'highlight_'
'compression_'
'association_'
'Multilayer_'
'Introduction_'
'Connector_'
'shipped_'
'quarter_'
'diverse_'
'delays_'
'Outdoor_'
'Inter_'
'Accounts_'
'forecast_'
'descriptions_'
'Telepresence_'
'HDLC_'
'Enrollment_'
'incentive_'
'boundaries_'
'Medium_'
'Consulting_'
' : ( _'
'master_'
'UNIX_'
'Second_'
'SX_'
'RSA_'
'Numbers_'
'Indicates_'
'Demo_'
'Alert_'
'1550_'
'initiative_'
'hands_'
'compact_'
'abandoned_'
'L2_'
'Insert_'
'Embedded_'
'East_'
'Clients_'
'CE_'
'51_'
'x'
'receipt_'
'proactively_'
'lease_'
'fix_'
'Voicemail_'
'Logical_'
'Controls_'
'Amount_'
'popular_'
'pings_'
'Together_'
'Pro_'
'06_'
'senior_'
'onsite_'
'invest_'
'January_'
'Individual_'
'CCO_'
'CB_'
'Apps_'
'timely_'
'switchport_'
'pilot_'
'cities_'
'Desk_'
' " , " _'
'shut_'
'negotiation_'
'grid_'
'Rev_'
'OF_'
'OC48_'
'Just_'
'... _'
'variable_'
'tax_'
'pairs_'
'icons_'
'focuses_'
'conferences_'
'Term_'
'Strategic_'
'2811_'
'utilize_'
'iPhone_'
'queues_'
'monthly_'
'forth_'
'UTP_'
'SPF_'
'Assistance_'
'Advisor_'
'v_'
'SenderBase_'
'Label_'
'EAP_'
'Distributors_'
'mounting_'
'cm_'
'ce_'
'Worldwide_'
'Limit_'
'pervasive_'
'partnership_'
'missed_'
'lesson_'
'lb_'
'expiration_'
'circuits_'
'Prepare_'
'Leadership_'
'Helps_'
'3900_'
'patient_'
'databases_'
'award_'
'URI_'
'Selection_'
'None_'
'CIDR_'
'4G_'
'preference_'
'Uses_'
'Include_'
'Browser_'
'Border_'
'winning_'
'protects_'
'else_'
'damage_'
'covers_'
'affordable_'
'Senior_'
'IBSG_'
'Adv_'
'viewed_'
'simulation_'
'firm_'
'crossover_'
'approaches_'
'school_'
'obtained_'
'insight_'
'eliminates_'
'attempting_'
'WCS_'
'Scalable_'
'Models_'
'EN_'
'DN_'
'Box_'
'Automated_'
'1861_'
'vulnerabilities_'
'versus_'
'journey_'
'joint_'
'iPad_'
'OC12_'
'Intrusion_'
'DM_'
'Commands_'
'August_'
'manageability_'
'idle_'
'consolidated_'
'attention_'
'Tunnel_'
'truly_'
'multipoint_'
'kg_'
'dates_'
'agencies_'
'Metrics_'
'Approach_'
'ASR1000_'
'vPC_'
'ranges_'
'oriented_'
'experienced_'
'Website_'
'VMs_'
'November_'
'Exit_'
'responsibilities_'
'remember_'
'meaning_'
'encourage_'
'broadcasts_'
'Installed_'
'news_'
'XR_'
'PMC_'
'MIB_'
'Cont_'
'wires_'
'proof_'
'Decision_'
' ” ) _'
'uplinks_'
'timer_'
'targets_'
'studies_'
'stations_'
'receiver_'
'qualify_'
'octet_'
'mentioned_'
'failures_'
'acts_'
'optic_'
'audience_'
'Mac_'
'CallMgr_'
'Businesses_'
' ( ) _'
'writing_'
'win_'
'topologies_'
'se_'
'optimizing_'
'keyword_'
'facilitates_'
'defaults_'
'closely_'
'UPGR_'
'Library_'
'Legacy_'
'CEO_'
'converted_'
'Facebook_'
'mesh_'
'execution_'
'HGBT_'
'secured_'
'participating_'
'keypad_'
'greatly_'
'break_'
'adjacencies_'
'VP_'
'Deploy_'
' : “ _'
' ) ;_'
'pressing_'
'owner_'
'concepts_'
'compare_'
'Understand_'
'Instructions_'
'E2_'
'mitigate_'
'ideas_'
'granted_'
'career_'
'accounting_'
'Scalability_'
'M1_'
'Interconnect_'
'Info_'
'IN_'
'DART_'
'Controllers_'
'Cnfg_'
'ry_'
'leveraging_'
'granular_'
'committed_'
'Write_'
'Visual_'
'Statement_'
'Sign_'
'Reg_'
'Me_'
'June_'
'2900_'
'subscriptions_'
'measured_'
'intellectual_'
'hypervisor_'
'holistic_'
'got_'
'configurable_'
'Redundancy_'
'KIT_'
'Initial_'
'Faster_'
'packages_'
'masks_'
'Opt_'
'MTPLACE_'
'represented_'
'observe_'
'collect_'
'budgets_'
'Savings_'
'Providing_'
'Detailed_'
'positioned_'
'physically_'
'monitors_'
'buying_'
'Commercial_'
'Australia_'
'worked_'
'seven_'
'potentially_'
'Validated_'
'Practices_'
'Different_'
'CPE_'
'CCNP_'
'4000_'
'subscribers_'
'slow_'
'majority_'
'hook_'
'buildings_'
'Revenue_'
'RISC_'
'Down_'
'hexadecimal_'
'eligibility_'
'copies_'
'child_'
'Repeat_'
'RIPv1_'
'PRI_'
'L3_'
'Free_'
'ten_'
'safe_'
'retain_'
'programmable_'
'pack_'
'illustrates_'
'colleagues_'
'Challenges_'
'2801_'
'nor_'
'determining_'
'clusters_'
'classless_'
'TC_'
'Alternate_'
'violation_'
'tablet_'
'music_'
'adopt_'
'SFDC_'
'Double_'
'decrease_'
'centrally_'
'YEAR_'
'Lines_'
'vertical_'
'towards_'
'differentiated_'
'Detection_'
'temporary_'
'historical_'
'firms_'
'aligned_'
'UPG_'
'Restore_'
'3B_'
'relative_'
'presents_'
'participation_'
'leased_'
'extremely_'
'challenging_'
'Specifies_'
'Regular_'
'Integrator_'
'Effective_'
'Brightmail_'
'AVC_'
'realm_'
'concern_'
'applying_'
'RU_'
'Generate_'
' ” , _'
' }_'
'simultaneous_'
'newer_'
'geographic_'
'background_'
'HTML_'
'prt_'
'organized_'
'listen_'
'commerce_'
'agreed_'
'Z_'
'PARTNER_'
'Inside_'
'Has_'
'GS7000_'
'Ctrl_'
'C220_'
'Bundles_'
'strength_'
'numerous_'
'head_'
'greeting_'
'estimates_'
'activation_'
'Activation_'
'speaker_'
'neighboring_'
'enrolled_'
'differentiate_'
'corner_'
'conflict_'
'Processing_'
'Defense_'
'enhancing_'
'decide_'
'clearly_'
'Verification_'
'Seats_'
'- > _'
'economy_'
'Off_'
'240_'
'tunnels_'
'manufacturer_'
'enroll_'
'confidentiality_'
'HDD_'
'04_'
'wanted_'
'encoding_'
'calculation_'
'Campaign_'
'AIP_'
'2500_'
'phases_'
'ground_'
'encapsulated_'
'X2_'
'Recommended_'
'Presentation_'
'PIX_'
'Expand_'
' ) [ _'
'◦ _'
'resume_'
'locked_'
'callers_'
'assessments_'
'WebVPN_'
'ER_'
'restrictions_'
'XenDesktop_'
'Student_'
'Simplify_'
'SIO_'
'Operate_'
'5K_'
'summarized_'
'responsiveness_'
'functioning_'
'breach_'
'aggregate_'
'IKE_'
'1310_'
'terminated_'
'successor_'
'echo_'
'divided_'
'comments_'
'antennas_'
'NICs_'
'syntax_'
'reboot_'
'Refresh_'
'Month_'
'Inventory_'
'I2_'
'Fail_'
'Ctd_'
'Consumer_'
'' _'
'ty_'
'tech_'
'provisioned_'
'library_'
'amounts_'
'SDH_'
'Requires_'
'Analytics_'
'AD_'
'costly_'
'Turn_'
'Transformation_'
'Confidential_'
'12000_'
'smooth_'
'smartphone_'
'presentations_'
'mapped_'
'influence_'
'https_'
'feet_'
'digit_'
'Typically_'
'SSP_'
'Magic_'
'Administrative_'
'- , _'
' . ( _'
'positioning_'
'looks_'
'feed_'
'Notifications_'
'DES_'
'DB_'
'BRI_'
'videos_'
'subsequent_'
'picture_'
'hoc_'
'feasible_'
'extensions_'
'extending_'
'booking_'
'accuracy_'
'Usr_'
'Hour_'
'Higher_'
'Drop_'
'Alternatively_'
'linked_'
'info_'
'definitions_'
'copied_'
'captured_'
'Worker_'
'Safety_'
'NCS_'
'Medianet_'
'Mapping_'
'Healthcare_'
'Chief_'
'unused_'
'redirect_'
'midmarket_'
'lifetime_'
'Sessions_'
'Root_'
'PT_'
'Member_'
'CSU_'
'44_'
'1941_'
'utilities_'
'requesting_'
'monitored_'
'layout_'
'gaps_'
'flag_'
'consistently_'
'Should_'
'Lists_'
'Annual_'
'72_'
'standby_'
'introduces_'
'SNTC_'
'Logging_'
'LACP_'
'FilmCompany_'
'Disti_'
'95_'
'2GE_'
'2600_'
'specializations_'
'permits_'
'hello_'
'Specifications_'
'Short_'
'School_'
'Overall_'
'trigger_'
'downloads_'
'LSAs_'
'1RU_'
'incorporate_'
'entertainment_'
'attend_'
'Received_'
'GBIC_'
'Delivering_'
'900_'
't'
'enablement_'
'Router1_'
'DUAL_'
'CUWL_'
'streamline_'
'methodology_'
'everyone_'
'estimated_'
'Smartport_'
'Compact_'
'predictable_'
'posture_'
'generates_'
'gather_'
'combining_'
'ROSA_'
'Quantity_'
'Enhance_'
'AIR_'
'industrial_'
'indicator_'
'height_'
'discussions_'
'd2_'
'assigns_'
'accomplish_'
'USD_'
'PVC_'
'Life_'
'CH_'
'causing_'
'TPs_'
'Optimize_'
'Mark_'
'Delivers_'
'Always_'
'updating_'
'ive_'
'ity_'
'graphic_'
'exceeds_'
'classification_'
'builds_'
'Prior_'
'Preview_'
'OSPFv2_'
'K'
'Flex_'
'regions_'
'individually_'
'executed_'
'exceptional_'
'bus_'
'WPA_'
'Protect_'
'LSA_'
'Emerging_'
'Cius_'
'hierarchy_'
'explore_'
'Relationship_'
'Peripheral_'
'Industrial_'
'Consistent_'
' ' ._'
'toolbar_'
'sort_'
'ent_'
'employment_'
'egress_'
'crucial_'
'broader_'
'October_'
'9500_'
'transitions_'
'television_'
'metal_'
'languages_'
'fundamental_'
'expenditures_'
'Videoscape_'
'Stop_'
'Comp_'
'sense_'
'periodic_'
'orchestration_'
'motion_'
'gap_'
'dependent_'
'contrast_'
'compromise_'
'automate_'
'Print_'
'Major_'
'Answers_'
'Agents_'
'Administrators_'
' ) — _'
'viruses_'
'pt_'
'populated_'
'collected_'
'SMBS_'
'Identifies_'
'> > _'
'1'
' \\ " \\ " _'
'uploaded_'
'simpler_'
'natural_'
'fill_'
'blue_'
'Parameters_'
'London_'
'DFC_'
'signage_'
'rewards_'
'removing_'
'opened_'
'leaving_'
'initially_'
'immersive_'
'differentiation_'
'Tracking_'
'Lync_'
'Hyper_'
'stability_'
'push_'
'prices_'
'institutions_'
'NO_'
'CPS_'
'34_'
'2RU_'
'university_'
'trace_'
'Shows_'
'Leverage_'
'Good_'
'BE3000_'
'Accept_'
'2200_'
'water_'
'measurement_'
'duplicate_'
'Way_'
'VSEC_'
'Important_'
'Five_'
'Big_'
'110_'
' , , _'
'specification_'
'periods_'
'ns_'
'labeled_'
'finance_'
'considering_'
'QAM_'
'DSU_'
'Associate_'
'vital_'
'spending_'
'playback_'
'middle_'
'ls_'
'chart_'
'XE_'
'Invoice_'
'DVB_'
'prepared_'
'objects_'
'newly_'
'bounce_'
'Secondary_'
'SDI_'
'Navigator_'
'Length_'
'EU_'
'EM_'
'Definition_'
'Cross_'
'transfers_'
'peak_'
'crypto_'
'branches_'
'assignments_'
'Starting_'
'SERVICES_'
'Metro_'
'Like_'
'Gb_'
'224_'
', '
'stateful_'
'pending_'
'belong_'
'Special_'
'Position_'
'touchscreen_'
'helped_'
'fees_'
'extent_'
'disconnect_'
'detects_'
'columns_'
'classroom_'
'algorithms_'
'actively_'
'Transform_'
'Syslog_'
'Signature_'
'Recipients_'
'PO_'
'Association_'
'ADSL2_'
'talent_'
'reasonable_'
'pools_'
'permanent_'
'numbered_'
'intervals_'
'ins_'
'generating_'
'friendly_'
'PLUS_'
'MSE_'
'GSR_'
'Front_'
'Efficiency_'
'Convergence_'
'CLASS_'
'American_'
' ) -_'
'usable_'
'stand_'
'minor_'
'limiting_'
'catalog_'
'belongs_'
'SNT_'
'Resolution_'
'Region_'
'Manufacturing_'
'Distributed_'
'Density_'
'DS_'
'submitting_'
'roaming_'
'remediation_'
'recognition_'
'outstanding_'
'Materials_'
'Conn_'
'ACS_'
'seeing_'
'ous_'
'marketplace_'
'integer_'
'grows_'
'entitlement_'
'WLANs_'
'Saved_'
'Readiness_'
'RTF_'
'ROM_'
'Flexibility_'
'Establish_'
'Dashboard_'
'BB_'
'renew_'
'networked_'
'governance_'
'envelope_'
'Warranty_'
'SystemTM_'
'Forecast_'
'Cfg_'
'transparently_'
'served_'
'Window_'
'Promotions_'
'FXS_'
'Asset_'
'2016_'
'token_'
'rebate_'
'prefer_'
'lose_'
'licensed_'
'involves_'
'attendant_'
'accelerated_'
'Catalog_'
'5'
'submission_'
'population_'
'mitigation_'
'independently_'
'finding_'
'WANs_'
'Standby_'
'Participants_'
'Legal_'
'GMN_'
'Expected_'
'Currently_'
'4GB_'
' _'
'sensors_'
'restrict_'
'chose_'
'Travel_'
'Timeout_'
'Sub_'
'SCA_'
'Element_'
'Acceleration_'
'7200_'
'pressure_'
'credits_'
'QSFP_'
'PVST_'
'MSTP_'
'Given_'
'ES_'
'101_'
'0'
' ( % _'
'tunneling_'
'purchases_'
'ing'
'developers_'
'defining_'
'acceptance_'
'MCU_'
'Centers_'
'2018_'
' ) . _'
' " ;_'
'premium_'
'ipconfig_'
'filename_'
'ch_'
'Receive_'
'PAM_'
'Outgoing_'
'sensor_'
'printers_'
'principles_'
'pickup_'
'discovered_'
'constraints_'
'brought_'
'although_'
'Symantec_'
'Modem_'
'G0_'
'Fwd_'
'Analog_'
'zones_'
'xxx_'
'securing_'
'objective_'
'hops_'
'ding_'
'Silver_'
'Regional_'
'NPE_'
'Don_'
'11ag_'
' $ { _'
'summarizes_'
'revision_'
'profit_'
'offline_'
'ne_'
'gathered_'
'consideration_'
'compensation_'
'agency_'
'Otherwise_'
'NEW_'
'ENTERPRISE_'
'CMSP_'
'Activities_'
' ) # _'
'traceroute_'
'severity_'
'prioritize_'
'priced_'
'hundreds_'
'effects_'
'accurately_'
'Native_'
'synchronization_'
'deleting_'
'conversion_'
'Years_'
'Lock_'
'Detail_'
'CCIE_'
'predefined_'
'microphone_'
'indicators_'
'establishing_'
'border_'
'animation_'
'VDC_'
'DCNM_'
'Council_'
'BSPSPopupOnMouseOver_'
'Annex_'
'upstream_'
'stages_'
'rolling_'
'precedence_'
'ingress_'
'idea_'
'cycles_'
'collisions_'
'IaaS_'
'Endpoint_'
'160_'
'saves_'
'placement_'
'permanently_'
'inform_'
'equipped_'
'consuming_'
'Unknown_'
'SMS_'
'Leading_'
'Duration_'
'BSSCPopup_'
'B2B_'
'schools_'
'respectively_'
'repeat_'
'positions_'
'nat_'
'helpful_'
'charges_'
'advertisements_'
'Virtualized_'
'Unicast_'
'Standalone_'
'Participant_'
'FastEthernet0_'
'Count_'
'Actions_'
'AMs_'
'speak_'
'repair_'
'poor_'
'cord_'
'Watch_'
'Marketplace_'
'Financing_'
'Aware_'
'Assurance_'
'scales_'
'reviewed_'
'resellers_'
'X'
'Sametime_'
'RP1_'
'CUCM_'
'Browse_'
'translations_'
'et_'
'educational_'
'controlling_'
'alarm_'
'TP_'
'Startup_'
'Starter_'
'Property_'
'1500_'
'y'
'wherever_'
'telecommunications_'
'tags_'
'segmentation_'
'screens_'
'scan_'
'recurring_'
'preventing_'
'Well_'
'VSPEX_'
'SCCP_'
'41_'
'3K_'
'speakerphone_'
'seek_'
'reverse_'
'reliably_'
'outages_'
'lowering_'
'labor_'
'attacker_'
'Updated_'
'URLs_'
'Sites_'
'Roles_'
'Retail_'
'Period_'
'Manual_'
'Lite_'
'Human_'
'FabricPath_'
'AS5400XM_'
'10'
'responds_'
'fiscal_'
'eigrp_'
'Trends_'
'TMP_'
'SSO_'
'ISRs_'
'IEC_'
'DSP_'
'ASR1002_'
'07_'
'produce_'
'pick_'
'enhances_'
'VTY_'
'SmartPlay_'
'Sets_'
'LCD_'
'Getting_'
'Extend_'
'Consumption_'
'Brand_'
'ying_'
'whom_'
'v1_'
'timing_'
'piece_'
'comparison_'
'Serial0_'
'Reduces_'
'Federal_'
'Discover_'
'workstations_'
'feeds_'
'establishes_'
'competing_'
'WiFi_'
'UL_'
'SNTP_'
'Mgmt_'
'AT_'
'2015_'
'translate_'
'structured_'
'screws_'
'false_'
'exhibit_'
'entities_'
'constantly_'
'competitor_'
'branded_'
'assigning_'
'Shanghai_'
'Making_'
'MC_'
'Distance_'
'2005_'
'pod_'
'announced_'
'Viewing_'
'SBA_'
'Roadmap_'
'Enterprises_'
'43_'
'37_'
'mixed_'
'launched_'
'concerned_'
'Simulation_'
'Rich_'
'Interaction_'
'Further_'
'Calling_'
'Boot_'
'Avaya_'
'v'
'proposition_'
'outlined_'
'numeric_'
'emulation_'
'consulting_'
'began_'
'authority_'
'alignment_'
'acquired_'
'accelerating_'
'Transaction_'
'Specialist_'
'Same_'
'Ring_'
'Problems_'
'.-_'
'modern_'
'knows_'
'identical_'
'fax_'
'customizable_'
'art_'
'Less_'
'Ess_'
'Correct_'
'100'
') _'
'transmitting_'
'selects_'
'r'
'owners_'
'legitimate_'
'issuing_'
'Rel_'
'Locator_'
'Keys_'
'Hard_'
'Fax_'
'width_'
'exported_'
'drag_'
'continuing_'
'bill_'
'York_'
'TB_'
'Specialized_'
'Renewal_'
'POE_'
'Officer_'
'Ease_'
'CORE_'
'4'
'specifying_'
'reaching_'
'meters_'
'huge_'
'affecting_'
'SSPT_'
'Identification_'
'FW_'
'Eagle_'
'Breakaway_'
'stakeholders_'
'searching_'
'qualification_'
'menus_'
'funding_'
'depend_'
'Pickup_'
'DMVPN_'
'Credits_'
'2003_'
' ) – _'
'signing_'
'medianet_'
'interconnects_'
'graphical_'
'cellular_'
'Qualification_'
'Extenders_'
'Accelerator_'
'10GBASE_'
' \u_'
'removes_'
'pull_'
'org_'
'incidents_'
'dictionary_'
'ago_'
'Sample_'
'Peer_'
'LCP_'
'512_'
'partition_'
'lic_'
'inactive_'
'Stage_'
'SME_'
'Purpose_'
'Appl_'
'20'
' % ._'
'vCenter_'
'supplier_'
'stated_'
'rebates_'
'comment_'
'POP_'
'LE_'
'John_'
'8p_'
'63_'
'unprecedented_'
'loading_'
'limitation_'
'explains_'
'bridges_'
'Science_'
'Firewalls_'
'Claim_'
'Adoption_'
'9'
'47_'
'yellow_'
'tenant_'
'collector_'
'assume_'
'acquire_'
'Station_'
'SLAs_'
'Its_'
'FCS_'
'Enhancements_'
'DoS_'
'Comparison_'
'Across_'
'AL_'
'triggered_'
'thought_'
'relatively_'
'consult_'
'South_'
'Rebate_'
'LMS_'
'Juniper_'
'Credit_'
' ] [ _'
'w'
'prospects_'
'originating_'
'lighting_'
'VSS_'
'Package_'
'PAP_'
'NetSpace_'
'Gain_'
'Expense_'
'Due_'
'APJC_'
'tomorrow_'
'queuing_'
'passes_'
'none_'
'guarantee_'
'formal_'
'edited_'
'dashboard_'
'DS3_'
'Act_'
'twice_'
'seeking_'
'road_'
'partnerships_'
'obligations_'
'culture_'
'breadth_'
'SUP32_'
'Installing_'
'Increasing_'
'HAT_'
'FP_'
'EA_'
'Added_'
'2PS_'
'xx_'
'suited_'
'standardized_'
'null_'
'mailbox_'
'highlights_'
'flat_'
'e'
'debugging_'
'contractors_'
'construction_'
'claims_'
'accomplished_'
'Korea_'
'Fully_'
'Following_'
'transportation_'
'snooping_'
'scripts_'
'pieces_'
'finish_'
'd'
'affects_'
'Y'
'Needs_'
'Mute_'
'watch_'
'vice_'
'ultimately_'
'temporarily_'
'tagged_'
'story_'
'insights_'
'ations_'
'Locate_'
'Explore_'
'Endpoints_'
'Assignment_'
'1250_'
'thinking_'
'ness_'
'j_'
'experiencing_'
'Terminal_'
'Script_'
'SGT_'
'Levels_'
'1900_'
'roll_'
'o'
'listening_'
'fall_'
'composite_'
'boost_'
'backed_'
'POST_'
'Exam_'
'Engagement_'
'Developer_'
'COMPANY_'
'8'
'3825_'
'weight_'
'tracert_'
'ratio_'
'grant_'
'fans_'
'expires_'
'convenient_'
'XL_'
'Mux_'
'Manufacturer_'
'KEY_'
'Hub_'
'H3_'
'85_'
'voltage_'
'treatment_'
'suitable_'
'succeed_'
'shipment_'
'Workforce_'
'Switched_'
'Ps_'
'Production_'
'Highlight_'
'Glance_'
'Designs_'
'Clicking_'
'Between_'
'4710_'
'videoconferencing_'
'tailored_'
'modifications_'
'manufacturers_'
'compete_'
'UWL_'
'Requests_'
'Normal_'
'NOC_'
'Categories_'
'virtually_'
'tracks_'
'kbps_'
'Reason_'
'IPCX_'
'5585_'
'( ' _'
' } ._'
'workflows_'
'took_'
'isolation_'
'door_'
'campaigns_'
'Wait_'
'Multinational_'
'CIOs_'
' , '
'technique_'
'span_'
'residential_'
'Gateways_'
'Force_'
'DND_'
'DHCPv4_'
'Conversation_'
'1002_'
' >_'
' : : / _'
'serving_'
'on'
'internetwork_'
'engines_'
'continuously_'
'codec_'
'ate_'
'Very_'
'Mid_'
'02_'
'seminar_'
'isolate_'
'fits_'
'families_'
'entitled_'
'division_'
'asking_'
'affiliates_'
'adjacent_'
'adequate_'
'Logs_'
'Corporation_'
'CX_'
'Automatically_'
' =_'
'ure_'
'relies_'
'persistent_'
'occurring_'
'agrees_'
'achieving_'
'VSMS_'
'Shelf_'
'Sector_'
'Recovery_'
'Efficient_'
'universal_'
'references_'
'UK_'
'Trend_'
'Sensor_'
'Scope_'
'FX_'
'Evolution_'
'Days_'
'CoS_'
'100BASE_'
'trained_'
'train_'
'responding_'
'landscape_'
'ings_'
'cs_'
'consume_'
'Progress_'
'Maintain_'
'3'
'00'
'‘ _'
'noted_'
'negative_'
'internally_'
'interconnected_'
'confirmed_'
'completes_'
'candidate_'
'Recent_'
'PG_'
'Interval_'
'Fields_'
'Factor_'
'CM6_'
'Bring_'
'30'
'impacts_'
'holds_'
'carried_'
'Typical_'
'Transparent_'
'Rtr_'
'ONE_'
'Neighbor_'
'Inbox_'
'HOSTED_'
'256MB_'
'liability_'
'landing_'
'incorrectly_'
'exclusive_'
'directions_'
'Validation_'
'VAC_'
'Calendar_'
'workspaces_'
'statically_'
'noise_'
'introducing_'
'findings_'
'advertisement_'
'adaptive_'
'V2_'
'Proactive_'
'PIM_'
'Modu_'
'Interoperability_'
'Instance_'
'BID_'
' : $ _'
'Ó_'
'reaches_'
'practical_'
'diagnostic_'
'Their_'
'Prompt_'
'Introducing_'
'ISO_'
'Hybrid_'
'Highly_'
'Collaborate_'
'6'
' , ._'
'vulnerability_'
'trouble_'
'focusing_'
'WPA2_'
'Vision_'
'Upgrades_'
'SMARTNet_'
'Platforms_'
'62_'
' ; ( _'
'traveling_'
'style_'
'stock_'
'responsive_'
'ments_'
'lives_'
'keeps_'
'farm_'
'decided_'
'counts_'
'VXC_'
'Successful_'
'Store_'
'Ship_'
'Exception_'
'Copper_'
'Branded_'
' . " ;_'
'won_'
'unreachable_'
'reside_'
'profitable_'
'allocate_'
'Observe_'
'Inverse_'
'Hz_'
'ENT_'
'EDFA_'
'Delay_'
'CSR_'
' ) " ? _'
'revenues_'
'reality_'
'multilayer_'
'blog_'
'Replacement_'
'Members_'
'MAP_'
'LP_'
'KB_'
'Generic_'
'Architectural_'
'92_'
'1p_'
'to'
'subset_'
'shares_'
'q'
'printed_'
'joining_'
'er'
'distances_'
'compromised_'
'boundary_'
'Talent_'
'SERVICE_'
'Q'
'Mon_'
'Beijing_'
'variables_'
'utilizing_'
'probably_'
'outcomes_'
'nce_'
'informed_'
'hospital_'
'encountered_'
'distinct_'
'derived_'
'counter_'
'consist_'
'bound_'
'Utilization_'
'Dedicated_'
'DIMM_'
'Configured_'
' ” ( _'
' > ._'
'swappable_'
'playing_'
'loads_'
'hubs_'
'b'
'aspect_'
'accelerates_'
'STM16_'
'Roll_'
'RTP_'
'G'
'AESK9_'
' ‐ _'
' ? ”_'
' +_'
'the'
'ful_'
'exceeded_'
'c'
'aid_'
'acknowledge_'
'XMPP_'
'Tables_'
'STM1_'
'Diagram_'
'Below_'
'7301_'
' ( '
'sh_'
'posted_'
'foundational_'
'fa0_'
'enjoy_'
'commit_'
'PA_'
'Feedback_'
'EIA_'
'CAB_'
'Again_'
'66_'
'13TXF_'
'transmissions_'
'selections_'
'satellite_'
'resides_'
'resale_'
'listeners_'
'gigabit_'
'exchanged_'
'excellence_'
'ethernet_'
'circumstances_'
'bad_'
'advisor_'
'accepts_'
'Templates_'
'SDN_'
'Probe_'
'Parties_'
'OC192_'
'L'
'720_'
'3845_'
'zip_'
'turns_'
'provisions_'
'octets_'
'iOS_'
'f'
'dollar_'
'Talk_'
'Premier_'
'Perf_'
'LR_'
'Indirect_'
'I3_'
'Equalizer_'
'Driver_'
'Criteria_'
'Considerations_'
'CCE_'
'ALL_'
'ADD_'
'86_'
'stacking_'
'preconfigured_'
'methodologies_'
'Selecting_'
'Inspection_'
'IPTV_'
'CSC_'
'Bun_'
'thin_'
'reviews_'
'rejected_'
'programming_'
'margins_'
'instructors_'
'governments_'
'bridging_'
'arrive_'
'Ticket_'
'Final_'
'Consolidation_'
'CO_'
' : '
' % , _'
'verifies_'
'subnetting_'
'possibly_'
'minimizing_'
'margin_'
'horizon_'
'establishment_'
'downloading_'
'assurance_'
'Sup_'
'Locations_'
'Leave_'
'JabberMobile_'
'IETF_'
'Fill_'
'09_'
'rise_'
'mismatch_'
'Navigate_'
'Messenger_'
'Firmware_'
'Finish_'
'C78_'
'transforming_'
'reserves_'
'ge_'
'encrypt_'
'UI_'
'UCM_'
'Protected_'
'MIMO_'
'Interconnects_'
'Guidelines_'
'40G_'
'twisted_'
'notified_'
'logic_'
'comma_'
'closer_'
'behaviors_'
'Sys_'
'Score_'
'HyperTerminal_'
'Hong_'
'61_'
'technicians_'
'spread_'
'redirected_'
'nd_'
'insurance_'
'formed_'
'engaged_'
'arrives_'
'Weight_'
'Such_'
'Subscriptions_'
'Sophos_'
'SW2_'
'Prem_'
'Player_'
'February_'
'ESW_'
'DVD_'
'CAD_'
'Ñ'
'tray_'
'round_'
'k'
'clean_'
'Spanish_'
'SG_'
'Named_'
'NA_'
'IB_'
'Frames_'
'Floor_'
'Engineers_'
'Engage_'
'Begin_'
'ASSY_'
': _'
'40'
' < > ’ _'
'scored_'
'representation_'
'prototype_'
'man_'
'arise_'
'Tbps_'
'N'
'J_'
'wave_'
'sustainable_'
'supervisors_'
'stateless_'
'replacing_'
'ranging_'
'preparation_'
'moment_'
'guests_'
'fashion_'
'dialed_'
'carefully_'
'True_'
'StackWise_'
'Sheet_'
'SONET_'
'Labs_'
'LSM_'
'EX_'
'Created_'
'Advance_'
'46_'
'3500_'
'2821_'
'03_'
'silos_'
'extender_'
'disparate_'
'broken_'
'biggest_'
'appropriately_'
'ally_'
'adjusted_'
'She_'
'RPS_'
'Previous_'
'Copyright_'
'CSS_'
'recognizes_'
'promotional_'
'multiplexing_'
'mounted_'
'i'
'elected_'
'alias_'
'Strong_'
'PC4_'
'MED_'
'Lvl_'
'ISC_'
'Cabling_'
'Alerts_'
'> _'
'0000_'
' ] '
' \\ " % _'
'weekly_'
'toggle_'
'separation_'
'quarterly_'
'or'
'hyperlink_'
'game_'
'g'
'evidence_'
'citizens_'
'brackets_'
'WSA_'
'Net'
'I'
'Antenna_'
'700_'
'28'
'ticket_'
'massive_'
'Twitter_'
'Sent_'
'Early_'
'1st_'
' " , _'
'weaknesses_'
'utilized_'
'q_'
'meter_'
'integral_'
'exercise_'
'VNX_'
'Username_'
'Stateful_'
'SP'
'Resume_'
'Reserved_'
'Proposal_'
'Potential_'
'Loss_'
'Entries_'
'BLF_'
'Accessing_'
'/ _'
' , \\ _'
'summarize_'
'fourth_'
'election_'
'TPA_'
'TOE_'
'SPAN_'
'Missing_'
'Meraki_'
'Convert_'
'1080p_'
'xxxx_'
'teleworkers_'
'square_'
'parallel_'
'overcome_'
'engaging_'
'clip_'
'approve_'
'Tr_'
'PR_'
'88_'
'2x_'
'2K_'
'rogue_'
'retention_'
'pin_'
'modification_'
'inserted_'
'annually_'
'West_'
'Unique_'
'RMS_'
'LUN_'
'Choice_'
'AS5350XM_'
'5510_'
'2CPU_'
' .._'
' ) '
' % '
'untagged_'
'searches_'
'jack_'
'calculations_'
'TACACS_'
'SUP_'
'OSM_'
'Gap_'
'Concurrent_'
'Component_'
'Advisory_'
'2G_'
' + , _'
'unnecessary_'
'solving_'
'puts_'
'pad_'
'lossless_'
'km_'
'innovate_'
'bare_'
'U'
'Outside_'
'Fault_'
'Duplicate_'
'Connectors_'
'Bulk_'
'Africa_'
'7815_'
'trial_'
'negotiate_'
'm'
'labels_'
'ion'
'exams_'
'disconnected_'
'cores_'
'contribute_'
'Tax_'
'Svcs_'
'Singapore_'
'Percentage_'
'Owner_'
'Medical_'
'Logo_'
'Included_'
'Guard_'
'December_'
'DTP_'
'Cs_'
'C240_'
'3600_'
'1s_'
'05_'
'reading_'
'hidden_'
'gained_'
'evaluating_'
'acting_'
'ZigBee_'
'Web'
'Validate_'
'Playbook_'
'Having_'
'Entity_'
'Channelized_'
'384_'
' . * _'
'resilience_'
'obtaining_'
'notices_'
'invited_'
'iSCSI_'
'foreign_'
'directories_'
'differ_'
'developer_'
'cdp_'
'bypass_'
'Hot_'
'Fb_'
'B'
'Analyze_'
'substantial_'
'regularly_'
'graph_'
'everywhere_'
'bundled_'
'TAB_'
'Satisfaction_'
'SYN_'
'Reliability_'
'Pk_'
'NDS_'
'Kong_'
'Interactive_'
'Discuss_'
'76_'
'sustainability_'
'random_'
'preserve_'
'official_'
'matrix_'
'constant_'
'closet_'
'browsers_'
'XX_'
'Telephone_'
'Segment_'
' $_'
'ss_'
'sole_'
'rating_'
'periodically_'
'optimizes_'
'joined_'
'converge_'
'classified_'
'assembly_'
'aging_'
'advice_'
'VRF_'
'Us_'
'Matrix_'
'Markets_'
'Assess_'
'53_'
'2020_'
'referenced_'
'installations_'
'holding_'
'estate_'
'ck_'
'barriers_'
'ance_'
'VT_'
'UPGRADE_'
'SI_'
'RJ45_'
'LICENSE_'
'Gen_'
'Creates_'
'Conduct_'
'Committee_'
'volumes_'
'strengthen_'
'streamlined_'
'star_'
'mappings_'
'late_'
'ending_'
'disabling_'
'decade_'
'al'
'SASU_'
'Independent_'
'IPIVR_'
'GW_'
'49_'
'urban_'
'surveys_'
'satisfy_'
'relating_'
'p'
'outputs_'
'ling_'
'ended_'
'consolidating_'
'car_'
'cancelled_'
'burden_'
'a'
'VRU_'
'UCCX_'
'Trans_'
'Replace_'
'ProductName_'
'PortFast_'
'D'
'Caller_'
'ACK_'
'12'
' } '
'inline_'
'expire_'
'escalation_'
'datacenter_'
'came_'
'attractive_'
'Stanford_'
'Split_'
'Securing_'
'Scanning_'
'MX_'
'MTU_'
'HGD_'
'ERP_'
'Disabled_'
'Cache_'
'CS_'
'Benefit_'
'trip_'
'satisfied_'
'realized_'
'investing_'
'incorporates_'
'herein_'
'handles_'
'gaining_'
'ed'
'dollars_'
'Things_'
'Neg_'
'NFR_'
'Hop_'
'Errors_'
'Deny_'
'Bounce_'
' ® , _'
'stronger_'
'rip_'
'replies_'
'plant_'
'pixels_'
'patients_'
'outdoor_'
'min_'
'invite_'
'attendees_'
'Multipoint_'
'H'
'Extensible_'
'Deploying_'
'CE'
'Brazil_'
'ASIC_'
'2'
'whereas_'
'teleworker_'
'stable_'
'senders_'
'ial_'
'funds_'
'fastest_'
'economics_'
'cohesive_'
'clustering_'
'carbon_'
'Scheduler_'
'MP'
'ILS_'
'Collection_'
'Capability_'
'Architectures_'
'320_'
'15530_'
'restored_'
'procurement_'
'player_'
'nothing_'
'isolated_'
'Streaming_'
'Smartports_'
'Identifier_'
'IGX_'
'GS7K_'
'Either_'
'transceiver_'
'hunt_'
'exchanges_'
'exceptions_'
'drops_'
'Separate_'
'Reducing_'
'Estimate_'
'Configures_'
'CSCO_'
'Bad_'
'Alarm_'
'prts_'
'originally_'
'migrated_'
'fulfill_'
'fee_'
'extenders_'
'era_'
'embrace_'
'consumed_'
'compromising_'
'browse_'
'WITH_'
'Ltd_'
'Disc_'
'Directors_'
'DO_'
'Collector_'
'Blank_'
'59_'
'350_'
'2851_'
'127_'
'synchronous_'
'synchronize_'
'stops_'
'pipeline_'
'land_'
'keywords_'
'intelligently_'
'increments_'
'flooding_'
'exposure_'
'consisting_'
'closing_'
'Vblock_'
'Slots_'
'Rewards_'
'Regulatory_'
'Redirect_'
'Pluggable_'
'Listener_'
'Improves_'
'Germany_'
'College_'
'Cases_'
'Attachment_'
'Air_'
'ze_'
'proliferation_'
'movement_'
'invoices_'
'hope_'
'explicitly_'
'Soft_'
'ScanSafe_'
'MIGRATN_'
'ISSU_'
'Give_'
'GPN_'
'Essentials_'
'Coverage_'
'Circuit_'
'16'
'ter_'
'strengths_'
'publish_'
'outage_'
'erase_'
'ds_'
'checklist_'
'Threats_'
'PE_'
'Francisco_'
'Encapsulation_'
'Dials_'
'Deleting_'
'711_'
'7'
'1D_'
'suggested_'
'manageable_'
'kept_'
'hash_'
'downstream_'
'copyright_'
'V'
'Recognition_'
'Promo_'
'Processes_'
'PXM1_'
'PID_'
'JV_'
'Hours_'
'Frequency_'
'F'
'Award_'
'68_'
'128MB_'
' ” ) ._'
'verifying_'
'tied_'
'strongly_'
'incorporated_'
'faculty_'
'es'
'docs_'
'convenience_'
'adopting_'
'Min_'
'Intended_'
'Creation_'
'Cables_'
'Bookings_'
'84_'
'© _'
'trap_'
'teaching_'
'speakers_'
'solely_'
'smoothly_'
'reachable_'
'passing_'
'fulfillment_'
'dispersed_'
'dBm_'
'PEM_'
'Obtain_'
'Hostname_'
'Factory_'
'Expressway_'
'ESXi_'
'Column_'
'2nd_'
'2800_'
'232_'
'varies_'
'technological_'
'spreadsheet_'
'reachability_'
'banking_'
'Z'
'VAT_'
'Utility_'
'Termination_'
'Taiwan_'
'SI'
'Reduction_'
'OUTPUT_'
'Ms_'
'Mini_'
'MA_'
'IMAP_'
'GHZ_'
'Editing_'
'CDMA_'
')_'
'sec_'
'relation_'
'preview_'
'disclosure_'
'deliverables_'
'compares_'
'assumes_'
'alarms_'
'Workflow_'
'VXLAN_'
'Shift_'
'Serv_'
'Related_'
'ONSITE24X7X4_'
'NGN_'
'Multi'
'Certifications_'
'Budget_'
'unlock_'
'theater_'
'tagging_'
'slides_'
'schedules_'
'reviewing_'
'paste_'
'overload_'
'macro_'
'ii_'
'evaluated_'
'contractual_'
'Sun_'
'Ra'
'Preferred_'
'Objective_'
'Furthermore_'
'French_'
'Defined_'
'Dear_'
'Authority_'
'64MB_'
'64'
'1CPU_'
'translates_'
'principal_'
'isn_'
'incomplete_'
'guard_'
'globe_'
'featured_'
'explained_'
'coordination_'
'continually_'
'ary_'
'acknowledges_'
'Supporting_'
'SMF_'
'RIPng_'
'Migrate_'
'Defines_'
'DEAL_'
'ASCII_'
'ultimate_'
'privilege_'
'installer_'
'displaying_'
'booked_'
'adopted_'
'US'
'Slide_'
'Profitability_'
'OADM_'
'NonProd_'
'IP'
'Evaluation_'
'Ad_'
'32'
'24'
' , < > _'
'replication_'
'intranet_'
'ied_'
'appointment_'
'amber_'
'UC520_'
'Syntax_'
'Started_'
'Manually_'
'Interactivity_'
'Identifying_'
'BNC_'
'60950_'
'10GbE_'
'worth_'
'spoke_'
'optics_'
'marks_'
'intermediate_'
'gas_'
'discarded_'
'binding_'
'Zero_'
'P2P_'
'Improving_'
'Contracts_'
'67_'
'58_'
'5508_'
'transit_'
'specialists_'
'profits_'
'outlet_'
'nine_'
'desirable_'
'cutting_'
'acquisitions_'
'Specializations_'
'Prefix_'
'NFS_'
'M'
'Functions_'
'Ethics_'
'DS'
'Customize_'
'Communities_'
'Commission_'
'999_'
' ) / _'
' _'
'timers_'
'surveyed_'
'shelf_'
'ke_'
'carries_'
'answering_'
'Workers_'
'TTL_'
'TAA_'
'Similar_'
'Reply_'
'Q2_'
'Nortel_'
'Membership_'
'Incl_'
'COM_'
'7500_'
'* * _'
'quite_'
'homepage_'
'flood_'
'examined_'
'ess_'
'Structure_'
'SANs_'
'Latency_'
'In'
'Grow_'
'Electronic_'
'EC'
'Delivered_'
'Bus_'
'APAC_'
'< _'
'7925G_'
'694X_'
' . '
'Ò'
'vast_'
'v3_'
'speech_'
'override_'
'overlay_'
'multivendor_'
'greatest_'
'fulfilled_'
'discretion_'
'became_'
'Ten_'
'Several_'
'Quiz_'
'PTZ_'
'NP_'
'MLD_'
'Initiative_'
'Dell_'
'CSMA_'
'77_'
'1GB_'
'1024_'
'nError_'
'interesting_'
'freedom_'
'enforced_'
'employ_'
'dhcp_'
'acknowledgement_'
'Win_'
'Severity_'
'Sequence_'
'SIGNATURE_'
'SEC_'
'Partial_'
'Ongoing_'
'Objectives_'
'Material_'
'Drivers_'
'BRANCH_'
'2004_'
'um_'
'populate_'
'necessarily_'
'implications_'
'communicates_'
'bracket_'
'announcement_'
'alphanumeric_'
'academy_'
'VSM_'
'VNI_'
'Stake_'
'SA'
'Positioning_'
'Netflow_'
'Diagnostics_'
'Chain_'
'ANSI_'
'A'
' © _'
' _'
'surface_'
'speaking_'
'schemes_'
'president_'
'ng'
'implements_'
'horizontal_'
'dials_'
'characteristic_'
'boarding_'
'Side_'
'Pkg_'
'IE_'
'Experiences_'
'Directories_'
'DI'
'Booking_'
'Blocks_'
'Beyond_'
'Assembly_'
'7609_'
'155_'
' ...._'
'waste_'
'sing_'
'resident_'
'recover_'
'plugged_'
'administratively_'
'To'
'Signaling_'
'Scheduled_'
'SMBs_'
'Restart_'
'Q3_'
'ONSITE24X7X2_'
'Moving_'
'Lotus_'
'Directly_'
'watts_'
'strings_'
'preparing_'
'playbook_'
'hang_'
'VSG_'
'RO'
'FORM_'
'Combined_'
'CUSTOMER_'
'Busy_'
'unexpected_'
'synchronized_'
'sw_'
'opt_'
'midnight_'
'involve_'
'happening_'
'demonstrates_'
'customization_'
'covering_'
'ISM_'
'IC_'
'Hide_'
'DC'
'Completed_'
'Assigned_'
'Accounting_'
'. '
' < > , _'
' ( ) ._'
'ys_'
'walk_'
'tremendous_'
'tions_'
'skilled_'
'examines_'
'clause_'
'broadest_'
'backhaul_'
'analyzer_'
'Trusted_'
'Transmission_'
'Token_'
'Records_'
'Possible_'
'PC0_'
'Object_'
'NS'
'Dsprsn_'
'48'
' > > _'
'tells_'
'sum_'
'structures_'
'stick_'
'representing_'
'representatives_'
'racks_'
'notation_'
'na_'
'interviews_'
'inputs_'
'backward_'
'archives_'
'NT_'
'Lack_'
'Incentives_'
'HPC_'
'Guides_'
'Customized_'
'CGR_'
'APIC_'
'2FE_'
'treated_'
'subnetwork_'
'skip_'
'disks_'
'discusses_'
'diagrams_'
'cy_'
'counters_'
'chance_'
'antivirus_'
'Toolkit_'
'Reliable_'
'Pilot_'
'Innovative_'
'Cisco'
'Call'
'CIFS_'
'CAGR_'
'60'
'45'
'3925_'
'201_'
' ( $ _'
'typing_'
'trillion_'
'shorter_'
'rings_'
'programmability_'
'lowers_'
'leaves_'
'intervention_'
'gathering_'
'fixes_'
'deeper_'
'Unifi_'
'Similarly_'
'SecureX_'
'SS'
'Pay_'
'FF_'
'CDN_'
'Adptr_'
'upcoming_'
'universities_'
'theft_'
'telephones_'
's'
'renewals_'
'queued_'
'him_'
'evolved_'
'books_'
'believes_'
'argument_'
'accordingly_'
'Wave_'
'TIA_'
'Po'
'La'
'IPICS_'
'FlexConnect_'
'Descriptions_'
'DFB_'
'DB8_'
'Compute_'
'Agility_'
'% ( _'
'stopped_'
'sees_'
'reject_'
'propagate_'
'promise_'
'proceeding_'
'perimeter_'
'institution_'
'instantly_'
'ignore_'
'expands_'
'commas_'
'borders_'
'Non'
'AS5350_'
'25'
' \\ % _'
' : . _'
'reveals_'
'replaces_'
'played_'
'papers_'
'engagements_'
'draft_'
'Vi'
'Throughput_'
'Telecom_'
'Sourcefire_'
'Sending_'
'QM_'
'OTV_'
'Loading_'
'ICND1_'
'CT'
'CSV_'
'BPDUs_'
'Avoid_'
'* '
' “ '
' ~ _'
'| _'
'zing_'
'ver_'
'tips_'
'specialist_'
'ned_'
'merge_'
'layered_'
'indoor_'
'functionalities_'
'fine_'
'ex_'
'and'
'analyzing_'
'TTS_'
'SIG_'
'Resellers_'
'Person_'
'PPPoE_'
'NS_'
'MS'
'Leader_'
'Japanese_'
'Complexity_'
'Complex_'
'@ _'
'7206VXR_'
'3945_'
' \\ '
'recommendation_'
'putting_'
'pleased_'
'inches_'
'guaranteed_'
'formerly_'
'differently_'
'datagram_'
'complement_'
'caching_'
'Works_'
'Speaker_'
'SF_'
'Rights_'
'RMON_'
'Inbound_'
'Documents_'
'Comments_'
'Codec_'
'AN_'
'15540_'
'raise_'
'officer_'
'kb_'
'indirect_'
'graphics_'
'empower_'
'Ser_'
'PD'
'Overlay_'
'IO_'
'IC'
'Economics_'
'DD_'
'CS'
'1600_'
'turning_'
'tones_'
'symbols_'
'perhaps_'
'mute_'
'millions_'
'fps_'
'electricity_'
'container_'
'c78_'
'WebLogic_'
'T'
'Studies_'
'Stream_'
'Scaling_'
'PSI_'
'NAS_'
'Jose_'
'Enforcement_'
'Disaster_'
'3560E_'
'transparency_'
'tightly_'
'simulate_'
'relevance_'
'receipts_'
'prohibited_'
'produced_'
'grouped_'
'explicit_'
'cursor_'
'Vertical_'
'Times_'
'TIP_'
'Sale_'
'SSC_'
'Q1_'
'Kingdom_'
'89_'
'75'
'traverse_'
'retailers_'
'leverages_'
'ized_'
'homes_'
'cooperation_'
'analyzed_'
'airflow_'
'Talking_'
'Headset_'
'D9887_'
'Configurable_'
'BC_'
'Academies_'
'A1_'
'1GE_'
'1001_'
'welcome_'
'traps_'
'suspected_'
'rising_'
'registry_'
'pwr_'
'ively_'
'indication_'
'entirely_'
'dB_'
'ce'
'buyers_'
'XFP_'
'V3PN_'
'Trunking_'
'StackPower_'
'Snooping_'
'Snapshot_'
'SVI_'
'Own_'
'NG_'
'FXO_'
'Duplex_'
'Color_'
'CIR_'
'Adapters_'
'Activate_'
'57_'
'220_'
'serious_'
'patches_'
'jitter_'
'invitation_'
'importing_'
'bps_'
'audits_'
'acknowledgment_'
'Wall_'
'VCE_'
'Theater_'
'Stack_'
'Seamless_'
'Russia_'
'PC'
'Function_'
'Division_'
'Barge_'
'Auth_'
'Anywhere_'
'Alliance_'
'science_'
'interoperable_'
'glass_'
'geographically_'
'conflicts_'
'candidates_'
'balanced_'
'avoidance_'
'Threshold_'
'Superior_'
'SOHO_'
'Pervasive_'
'PVDM3_'
'PORT_'
'Middle_'
'Jmpr_'
'Incorrect_'
'Electrical_'
'Done_'
'4GE_'
'39_'
'164_'
'15454E_'
'1300_'
'workshop_'
'transactional_'
'tickets_'
'thresholds_'
'simulated_'
'shortest_'
'saw_'
'rated_'
'initiates_'
'finally_'
'exploit_'
'encouraged_'
'denial_'
'composed_'
'Values_'
'Too_'
'Saving_'
'OUI_'
'ITP_'
'IMC_'
'Encrypted_'
'Door_'
'Domains_'
'Disturb_'
'Demonstrate_'
'Conf_'
'Bay_'
'78_'
' % )_'
'” _'
'uploading_'
'smarter_'
'maximizing_'
'mac_'
'handshake_'
'designation_'
'coupled_'
'Specifically_'
'Shipment_'
'PP_'
'P'
'Ownership_'
'IT'
'Banner_'
'AD'
'21st_'
' #_'
'whatever_'
'sides_'
'promoting_'
'forums_'
'diagnose_'
'chooses_'
'Trust_'
'Scheme_'
'Dialing_'
'Compensation_'
'1310nm_'
'0s_'
'radios_'
'popup_'
'optionally_'
'naming_'
'kinds_'
'ize_'
'intermediary_'
'h'
'employed_'
'desire_'
'denies_'
'comparable_'
'combinations_'
'Units_'
'Thus_'
'Switch1_'
'NETWORK_'
'Joint_'
'JMPR_'
'Invicta_'
'Integrate_'
'Increases_'
'IA_'
'Gas_'
'Exhibit_'
'EasyPay_'
'DATA_'
'Checklist_'
'Checking_'
'6200_'
'+ _'
' : \u_'
'z'
'reward_'
'pinging_'
'inbox_'
'impacting_'
'filtered_'
'express_'
'excluding_'
'draw_'
'da'
'advances_'
'WAE_'
'Urban_'
'SUPPORT_'
'SH_'
'R'
'Offerings_'
'NMS_'
'Enh_'
'DMP_'
'Commit_'
'Co'
'ClientLink_'
'CiscoWorks_'
'Areas_'
'Alt_'
'Adjust_'
'5505_'
'50'
'200'
' ~_'
'wider_'
'snapshot_'
'observed_'
'incl_'
'iExpenses_'
'exclusively_'
'emissions_'
'designate_'
'Unctd_'
'Successfully_'
'SSD_'
'RPR_'
'Q4_'
'J'
'Governance_'
'FY13_'
'Environmental_'
'Deep_'
'D9900_'
'Clouds_'
'CD'
'ABR_'
'420_'
' : | _'
'vehicle_'
'unsuccessful_'
'tape_'
'stub_'
'prospect_'
'generic_'
'discontiguous_'
'ct'
'contextual_'
'coach_'
'capturing_'
'captures_'
'asterisk_'
'aggregated_'
'Want_'
'VSOM_'
'Telecommunications_'
'Siemens_'
'Scan_'
'SM'
'NBAR_'
'Landing_'
'FIPS_'
'Dialer_'
'Contains_'
' \\ " % ( _'
'transferring_'
'slightly_'
'rt_'
'ringer_'
'reflects_'
'powers_'
'plain_'
'n'
'jointly_'
'j'
'corresponds_'
'cancellation_'
'actionable_'
'VPN2_'
'UP_'
'Summarization_'
'Maint_'
'LX_'
'Execution_'
'Defining_'
'Canvas_'
'Become_'
'100M_'
'travels_'
'subnetted_'
'sizing_'
'rollout_'
'recordings_'
'ma_'
'investigate_'
'fold_'
'faced_'
'dotted_'
'cryptographic_'
'confirms_'
'clicks_'
'chief_'
'admission_'
'Trouble_'
'Proprietary_'
'Pro'
'Plane_'
'Offering_'
'HDMI_'
'FAQ_'
'Eligible_'
'Centric_'
'Blocked_'
'Antennas_'
'Acquisition_'
'AP'
'AGENT_'
' \\ " ._'
'virtualize_'
'trading_'
'tend_'
'seats_'
'seat_'
'originate_'
'motherboard_'
'metadata_'
'interests_'
'income_'
'illustrate_'
'hole_'
'heavily_'
'frequencies_'
'forces_'
'exciting_'
'disruptions_'
'disables_'
'currency_'
'WW_'
'Topics_'
'Quarantines_'
'Push_'
'OUT_'
'Fa'
'Eng_'
'Clean_'
'Characteristics_'
'CC'
'?_'
'willing_'
'tries_'
'ses_'
'residents_'
'mini_'
'kadov_'
'involving_'
'ie_'
'excluded_'
'accepting_'
'UPS_'
'SharePoint_'
'Previously_'
'Pending_'
'Parent_'
'Found_'
'FAQs_'
'Entitlement_'
'Crypto_'
'Calculate_'
'CRC_'
'CP_'
'ASR1006_'
'82_'
'thank_'
'te'
'simplification_'
'resulted_'
'impacted_'
'demonstrated_'
'backups_'
'ag'
'UCL_'
'Signal_'
'Shell_'
'SFF_'
'Percent_'
'Latin_'
'LINK_'
'Israel_'
'Enet_'
'Disconnect_'
'@ @ _'
'93_'
'- '
' ’_'
' , -_'
'varying_'
'scheduler_'
'refreshed_'
'orderable_'
'interviewed_'
'infected_'
'heard_'
'deemed_'
'Sw_'
'Signage_'
'Restricted_'
'PM'
'Maintaining_'
'Journey_'
'Intermediate_'
'IPX_'
'FA'
'Centre_'
'Attack_'
'768_'
'750_'
'65'
' - '
'unmanaged_'
'rear_'
'portions_'
'mass_'
'l'
'gear_'
'exe_'
'editor_'
'couple_'
'cleared_'
'announcements_'
'YOU_'
'Trace_'
'Those_'
'Skip_'
'STM4_'
'Ro'
'Patch_'
'PICA_'
'MGX_'
'MDI_'
'M4_'
'L4_'
'IPC_'
'Discussion_'
'Daily_'
'Clock_'
'Calculator_'
'CEC_'
'Actual_'
'69_'
'11'
'+ '
' " '
'warnings_'
'understands_'
'storm_'
'net'
'logically_'
'expressed_'
'est_'
'damaged_'
'converts_'
'carrying_'
'callback_'
'VMAX_'
'Transactions_'
'TE_'
'Submitted_'
'Preference_'
'NSS_'
'NGFW_'
'Multiprotocol_'
'LINE_'
'Know_'
'Initiator_'
'EC_'
'1RX_'
' ] | _'
' : - _'
'transcoding_'
'substation_'
'reuse_'
'reflected_'
'pursuant_'
'profiling_'
'pointing_'
'packaged_'
'ization_'
'invested_'
'illegal_'
'forced_'
'flashing_'
'federal_'
'demonstrations_'
'bdr_'
'ated_'
'Thanks_'
'Sometimes_'
'SUP720_'
'Recall_'
'PCA_'
'Oil_'
'Motion_'
'Lost_'
'Layers_'
'LAN1_'
'Intercom_'
'Directed_'
'Associated_'
'3800_'
'140_'
' , [ _'
'tune_'
'tiered_'
'terminals_'
'reconnect_'
'organize_'
'ning_'
'milliseconds_'
'meant_'
'lit_'
'dealing_'
'collaborating_'
'cal_'
'blogs_'
'Webex_'
'Water_'
'Uplink_'
'RP2_'
'Qualified_'
'PS'
'News_'
'Midmarket_'
'MODULE_'
'LH_'
'Innovate_'
'Incremental_'
'FD_'
'Expiration_'
'ESX_'
'Cycle_'
'Configurator_'
'Competitor_'
'CSPP_'
'Applies_'
'Adobe_'
'A6_'
' ¥ _'
'neither_'
'needing_'
'modems_'
'intent_'
'describing_'
'bottlenecks_'
'attending_'
'accessibility_'
'Seminar_'
'SPs_'
'Responder_'
'Quarterly_'
'Mexico_'
'Loopback_'
'Ja'
'IGRP_'
'Fieldglass_'
'FE'
'END_'
'Cover_'
'CT3_'
'Battery_'
'225_'
'10000_'
' . " _'
' " ( _'
'projected_'
'pain_'
'owns_'
'frequent_'
'earn_'
'coordinate_'
'contacted_'
'Spectrum_'
'Satellite_'
'Regardless_'
'NE'
'MMF_'
'Goal_'
'France_'
'Forum_'
'Folder_'
'FTE_'
'CM7_'
'Admission_'
'36'
'1S_'
' ? '
' / '
'went_'
'waves_'
'vulnerable_'
'transforms_'
'tic_'
'shopping_'
'quarantines_'
'packaging_'
'justification_'
'instruction_'
'eventually_'
'essentially_'
'encoder_'
'conducting_'
'careful_'
'breaches_'
'bo'
'backplane_'
'avoiding_'
'Signing_'
'Pi'
'Lightweight_'
'LM_'
'Intellectual_'
'Initiation_'
'GSM_'
'Foreign_'
'FlexStack_'
'Designing_'
'Conversion_'
'Consistency_'
'Assets_'
'Align_'
'56'
'5520_'
'4FXS_'
'480_'
'1GHZ_'
'visiting_'
'urgent_'
'tight_'
'symptoms_'
'styles_'
'stackable_'
'ru'
'qualifying_'
'possibility_'
'non'
'maker_'
'inspect_'
'geographical_'
'formatted_'
'fire_'
'dramatic_'
'automating_'
'associations_'
'Tunneling_'
'Transportation_'
'Surge_'
'Subscriber_'
'Quickly_'
'NME_'
'ID'
'EtherSwitch_'
'Ecosystem_'
'Economy_'
'ES'
'Dec_'
'Consolidated_'
'CloudVerse_'
'Broad_'
'Bob_'
'Accessories_'
'Acceptable_'
'94_'
'8xPOE_'
'33'
'15305_'
' < _'
'zed_'
'teachers_'
'saying_'
'regard_'
'offload_'
'ignored_'
'hotel_'
'distinguish_'
'assumed_'
'ar_'
'appearance_'
'album_'
'Revision_'
'Receiving_'
'Nwk_'
'Man'
'MARS_'
'Environments_'
'Cash_'
'CUBE_'
'Bdl_'
'Attacks_'
'881_'
'2951_'
'wideband_'
'ties_'
'shape_'
'relate_'
'losing_'
'le'
'largely_'
'hostnames_'
'goods_'
'glance_'
'eDelivery_'
'diversity_'
'converting_'
'auditing_'
'arguments_'
'aggressive_'
'TOP_'
'Significant_'
'Pwr_'
'Nokia_'
'Innovations_'
'DL380_'
'Airport_'
'2901_'
' : • _'
'visitors_'
'url_'
'transceivers_'
'symbol_'
'subtrack_'
'shortcut_'
's0_'
'quarantined_'
'prioritized_'
'parked_'
'outlines_'
'matters_'
'learns_'
'ck'
'breed_'
'barge_'
'attackers_'
'Returns_'
'Poll_'
'Monthly_'
'Merge_'
'FY12_'
'Connects_'
'Compliant_'
'Briefing_'
'Auto'
'Allocation_'
'6100_'
' ! '
'ves_'
'up'
'unwanted_'
'ts'
'transitioning_'
'removal_'
'payload_'
'os_'
'longest_'
'leaf_'
'expects_'
'excessive_'
'corruption_'
'coaxial_'
'benchmark_'
'automates_'
'associates_'
'apart_'
'Week_'
'VS'
'TSP_'
'Strategies_'
'Present_'
'Names_'
'Maximize_'
'Interior_'
'Checker_'
'CSM_'
'Algorithm_'
'98_'
'.- _'
' ' % _'
'validates_'
'untrusted_'
'u'
'resell_'
'reconfigure_'
'prioritization_'
'portable_'
'gs_'
'facilitating_'
'encapsulates_'
'discard_'
'counted_'
'competencies_'
'clicked_'
'cells_'
'arp_'
'Velocity_'
'Trunks_'
'Silicon_'
'RB_'
'Province_'
'Proven_'
'POTS_'
'PAgP_'
'OM_'
'Multimedia_'
'Matching_'
'LAN2_'
'Extensions_'
'Eligibility_'
'ESA_'
'Driving_'
'DTMF_'
'Accelerated_'
': '
'13'
'wwwin_'
'serv_'
'exec_'
'escalate_'
'economies_'
'comprise_'
'ant_'
'alternatives_'
'VoD_'
'VE_'
'Subnets_'
'SMS3_'
'Professor_'
'Pad_'
'Li'
'Italy_'
'House_'
'DDR_'
'Chass_'
'AS5400_'
'360_'
'24x7_'
'15808_'
' ; '
' % ) _'
' # '
'tes_'
'ps'
'personally_'
'justify_'
'el_'
'der_'
'decreases_'
'confident_'
'UP'
'Tip_'
'Removing_'
'RAT_'
'Procedure_'
'NET_'
'Lo'
'Easily_'
'EE_'
'Continuous_'
'Clone_'
'Bytes_'
'ASR1004_'
'ANY_'
'81'
'6900_'
'5108_'
'38'
'2BRI_'
' + ) _'
'thanks_'
'subscribe_'
'shifting_'
'ro'
'posts_'
'overlapping_'
'examining_'
'designers_'
'complicated_'
'comparing_'
'closest_'
'VoiceXML_'
'USER_'
'Tips_'
'Queuing_'
'Provision_'
'NI'
'IR'
'Highest_'
'FAST_'
'EEE_'
'E'
'DDoS_'
'DA'
'CH'
'Blue_'
'BU_'
'BE'
'Achieve_'
'85'
'83_'
'71_'
'501_'
'47'
'130_'
' : % ( _'
'wi'
'targeting_'
'possibilities_'
'marking_'
'inclusive_'
'hide_'
'encounter_'
'disruptive_'
'dBi_'
'closes_'
'classic_'
'als_'
'airport_'
'Wi'
'Variable_'
'Republic_'
'RT'
'RP'
'Mounting_'
'MDE_'
'Listen_'
'Led_'
'ICS_'
'Enrolled_'
'CDE_'
'Bonjour_'
'Advantages_'
'wiki_'
'transmits_'
'ti'
'softkeys_'
'ppp_'
'narrow_'
'mp'
'mis'
'minimizes_'
'ge'
'gave_'
'floating_'
'differentiator_'
'challenged_'
'VXML_'
'Quadrant_'
'Proposed_'
'PP'
'Operator_'
'Minor_'
'Great_'
'FROM_'
'Expertise_'
'Elements_'
'Determining_'
'Debrief_'
'Bar_'
'BX_'
'Affiliates_'
'81_'
'55'
'3700_'
'100K_'
'/ '
'underscore_'
'tar_'
'shop_'
'req_'
'registering_'
'operated_'
'numbering_'
'negotiated_'
'heart_'
'grown_'
'excess_'
'deletion_'
'degradation_'
'consent_'
'announce_'
'Vista_'
'Scheduling_'
'SL_'
'Original_'
'Objection_'
'OT_'
'Methods_'
'IN'
'EHWIC_'
'DR'
'CTMP_'
'Bureau_'
'Backbone_'
'B1_'
'8000_'
'520_'
'300'
'1FE_'
'02'
' ’ ._'
' = ( _'
' - > _'
'wavelength_'
'thorough_'
'suspicious_'
'strict_'
'residence_'
'printing_'
'panels_'
'overlap_'
'optimum_'
'onboard_'
'obligation_'
'incorporating_'
'identifiers_'
'governed_'
'enhancement_'
'dropdown_'
'divide_'
'correlation_'
'concerning_'
'college_'
'classify_'
'assure_'
'Sa'
'RouterA_'
'RE_'
'Pod_'
'Permit_'
'Pattern_'
'Pane_'
'On'
'Netra_'
'NTSC_'
'Million_'
'Logistics_'
'LLC_'
'Ga'
'Deployments_'
'Demonstration_'
'Archive_'
'AV_'
'= _'
'69'
' . ) ._'
' ' '
'violations_'
'understood_'
'modeling_'
'ment'
'healing_'
'favorite_'
'consultants_'
'cing_'
'attaching_'
'YouTube_'
'W'
'Sorry_'
'SG'
'Proof_'
'Processors_'
'PREMIUM_'
'PO'
'PGW_'
'Network'
'Music_'
'MA'
'Leads_'
'GDP_'
'Empty_'
'Allowed_'
'5600_'
'ups_'
'unlike_'
'sticky_'
'redistribution_'
'post'
'political_'
'pi'
'paced_'
'ip'
'identities_'
'happy_'
'explanation_'
'eri'
'comfortable_'
'breaking_'
'Word_'
'Western_'
'Waiting_'
'Videoconferencing_'
'Tenant_'
'TMS_'
'THIS_'
'Stadium_'
'Sources_'
'Sound_'
'SN_'
'SD'
'SAF_'
'Parameter_'
'Ops_'
'IPB_'
'DSPs_'
'Confirmation_'
'Classless_'
'Cities_'
'Being_'
'BDM_'
'Attachments_'
'AppNav_'
'AC'
'7010_'
'4x'
'14'
' |_'
'uncovered_'
'spatial_'
'scores_'
'reminder_'
'modifying_'
'localized_'
'domestic_'
'didn_'
'colors_'
'bigger_'
'banks_'
'adjustments_'
'Width_'
'Washington_'
'VI'
'Union_'
'UPC_'
'Sta'
'Society_'
'SNA_'
'Partnership_'
'No'
'Metric_'
'Hunt_'
'Hierarchical_'
'Head_'
'Drives_'
'District_'
'DVO_'
'Cut_'
'Compatibility_'
'Blocker_'
'ADVANCED_'
'90'
'73_'
'upfront_'
'tolerance_'
'timeline_'
'staffing_'
'si'
'ries_'
'richer_'
'presenting_'
'players_'
'photos_'
'multiaccess_'
'lly_'
'interoperate_'
'facts_'
'decreased_'
'corporation_'
'complementary_'
'closets_'
'capitalize_'
'archived_'
'architect_'
'appreciate_'
'Vo'
'TANDBERG_'
'String_'
'Stackable_'
'Rather_'
'Participation_'
'ITU5'
'Host1_'
'FA_'
'Evaluate_'
'Differentiated_'
'Compatible_'
'CAPWAP_'
'Branch1_'
'79_'
'2400_'
'warehouse_'
'son_'
'repeatable_'
'pins_'
'me'
'heterogeneous_'
'drill_'
'delayed_'
'decline_'
'dash_'
'comprised_'
'advertises_'
'additions_'
'VIDEO_'
'Updating_'
'Tandberg_'
'Pass_'
'Notify_'
'Nodes_'
'Netherlands_'
'Missed_'
'LTE_'
'Japan2_'
'Industries_'
'Idle_'
'III_'
'Hypervisor_'
'FI'
'Execute_'
'EL'
'Consult_'
'Composer_'
'CB'
'Bypass_'
'Binary_'
'6509_'
'unifies_'
'quiz_'
'quicker_'
'paying_'
'parking_'
'over'
'lightweight_'
'ility_'
'heavy_'
'headsets_'
'grouping_'
'flowing_'
'falls_'
'equally_'
'ch'
'blind_'
'XYZ_'
'Wire_'
'SR'
'Optics_'
'MST_'
'MD'
'Leaders_'
'LI'
'LGX_'
'Ingress_'
'ION_'
'HD'
'Everyone_'
'Estimated_'
'Establishing_'
'EN'
'Deleted_'
'Countries_'
'Classification_'
'Cbl_'
'Berkeley_'
'BIOS_'
'AA_'
'2911_'
'100GHz_'
' [ '
' = '
'unify_'
'terminates_'
'so'
'revised_'
'retrieved_'
'resolving_'
'penetration_'
'ort_'
'if'
'ence_'
'communicated_'
'buyer_'
'bug_'
'approvals_'
'UC'
'Timing_'
'Think_'
'Temperature_'
'Shortest_'
'SCSI_'
'Recommendations_'
'NBMA_'
'MLPP_'
'MC'
'G1_'
'Designated_'
'DIMMs_'
'DE_'
'CP'
'CF'
'BaseT_'
'Americas_'
'7816_'
'1A_'
' ] ) _'
' . ]_'
'valued_'
'terminology_'
'shaping_'
'la_'
'forget_'
'finds_'
'copying_'
'competitively_'
'co'
'bands_'
'Valley_'
'Utilities_'
'Subnetting_'
'Passive_'
'IPSEC_'
'His_'
'Gather_'
'GTM_'
'GET_'
'Firefox_'
'CR'
'COBC_'
'C'
'Buttons_'
'Boost_'
'APC_'
'AM'
'1721_'
' ‧ _'
'unparalleled_'
'triggers_'
'tracked_'
'timeframe_'
'publisher_'
'phased_'
'onboarding_'
'misconfigured_'
'mirror_'
'knowing_'
'decreasing_'
'cont_'
'climate_'
'ay_'
'arising_'
'Trigger_'
'Territory_'
'Simplifies_'
'STS_'
'SDK_'
'Result_'
'Refurbished_'
'Promote_'
'Mpps_'
'Migrating_'
'Lookup_'
'K8_'
'IPMA_'
'ICME_'
'Handling_'
'Growing_'
'Fund_'
'FEC_'
'Contents_'
'Career_'
'CCENT_'
'Bit_'
'Array_'
'5dB_'
'49'
'1200_'
'( '
'utilizes_'
'ters_'
'screw_'
'restarted_'
'miles_'
'logistics_'
'lineBreak_'
'incurred_'
'enabler_'
'directors_'
'codecs_'
'browsing_'
'bootstrap_'
'bility_'
'attract_'
'angle_'
'accountability_'
'Wildcard_'
'Tele'
'STM64_'
'Routed_'
'Organizational_'
'O'
'Lu'
'Lighting_'
'Fortune_'
'FR_'
'E3'
':_'
'1140_'
'108_'
'steady_'
'sourced_'
'probe_'
'pause_'
'implicit_'
'expressly_'
'discussing_'
'detecting_'
'datagrams_'
'campuses_'
'bind_'
'VM'
'Trap_'
'Teams_'
'Seattle_'
'RFP_'
'Personalized_'
'Monday_'
'Minimize_'
'MR'
'Lifetime_'
'Law_'
'Keypad_'
'Hospital_'
'FY_'
'Expenses_'
'Domino_'
'Al'
'887_'
'74_'
'512MB_'
'10BASE_'
'walls_'
'waits_'
'usual_'
'un_'
'suspended_'
'suit_'
'straightforward_'
'spares_'
'signs_'
'rows_'
'retrieving_'
'outsourcing_'
'multimode_'
'installs_'
'ho'
'grew_'
'executing_'
'earned_'
'dead_'
'coordinated_'
'anonymous_'
'advisory_'
'Unless_'
'TO'
'TA'
'RAN_'
'Publish_'
'Presenter_'
'PSU_'
'OEM_'
'Mission_'
'Favorites_'
'ER'
'Detect_'
'County_'
'Computers_'
'Compression_'
'Amp_'
'Alignment_'
'Air'
'Advertisement_'
'1M_'
'̈ _'
'ware_'
'v6_'
'toll_'
'slower_'
'reservation_'
'rebooted_'
'ra_'
'originated_'
'ian_'
'hereby_'
'harness_'
'ee_'
'dot_'
'dimensions_'
'cBarge_'
'architects_'
'administer_'
'YOUR_'
'Workshop_'
'Wavelength_'
'VPLS_'
'Staff_'
'Sponsor_'
'SAML_'
'Internetwork_'
'Hotel_'
'Guidance_'
'Currency_'
'Communicate_'
'CPUs_'
'CN'
'Autonomous_'
'Attributes_'
'ASA5510_'
'AN'
'ADSLoPOTS_'
'98'
'6800_'
'4X_'
'3750E_'
'216_'
' : ._'
' ( " _'
'unencrypted_'
'uncompromised_'
'taxes_'
'spoofing_'
'slash_'
'readily_'
'pushed_'
'pre'
'outline_'
'origin_'
'newest_'
'intra_'
'geography_'
'formula_'
'for'
'fe'
'exploits_'
'employs_'
'construct_'
'bid_'
'anticipated_'
'VideoStream_'
'Teaming_'
'Summit_'
'Settings'
'PPE_'
'Modes_'
'Looking_'
'Grade_'
'Globally_'
'Doing_'
'Closed_'
'Blades_'
'Awareness_'
'Ad'
'8T1_'
'6004_'
'365_'
'1800_'
'1700_'
'~ _'
'worms_'
'tuning_'
'thirty_'
'ter'
'suggestions_'
'spyware_'
'retrieval_'
'repository_'
'publicly_'
'propagated_'
'perfect_'
'grants_'
'extensible_'
'exposed_'
'equals_'
'encoded_'
'dialup_'
'batch_'
'attempted_'
'analyst_'
'alerting_'
'URIs_'
'Tags_'
'Server'
'Renew_'
'Receiver_'
'OS'
'Na'
'Matches_'
'JavaScript_'
'Icon_'
'German_'
'Fundamentals_'
'Desktops_'
'Bits_'
'Attempt_'
'App'
'? '
'80'
'5GHz_'
'3C_'
'34'
'2002_'
'000'
' [ [ _'
' (_'
'unlimited_'
'tangible_'
'supplicant_'
'stands_'
'rs'
'retained_'
'quad_'
'presenter_'
'oil_'
'nt'
'ise_'
'hire_'
'gifts_'
'encompasses_'
'directional_'
'borrowed_'
'belonging_'
'assessing_'
'analysts_'
'Xpdr_'
'WINS_'
'Sub'
'Six_'
'Ri'
'PDI_'
'Often_'
'OM'
'NSF_'
'Garde_'
'FireSIGHT_'
'DS0_'
'Comm_'
'Closing_'
'CVD_'
'C22_'
'Avant_'
'Analyzer_'
'5100_'
'2100_'
'1999_'
'19'
'10Gbps_'
' –_'
'visits_'
'unifying_'
'storing_'
'retry_'
'retaining_'
'objections_'
'losses_'
'king_'
'govern_'
'gone_'
'games_'
'fuel_'
'floods_'
'fair_'
'dense_'
'collecting_'
'Taking_'
'RT_'
'Pulse_'
'Persistent_'
'Pa'
'PBXs_'
'MI'
'MACsec_'
'Integrity_'
'Insurance_'
'HealthPresence_'
'EMAIL_'
'DDR3_'
'C2960_'
'Applying_'
'450_'
'3600X_'
'197'
' ' [ _'
'ue_'
'tiers_'
'tie_'
'teach_'
'standardization_'
'scanned_'
'peripherals_'
'outcome_'
'flooded_'
'featuring_'
'compressed_'
'cisco'
'burst_'
'anticipate_'
'XENPAK_'
'Timer_'
'TS'
'Stateless_'
'Safelist_'
'Optionally_'
'NOS_'
'NCP_'
'ME'
'Ed_'
'Du'
'Denial_'
'Consolidate_'
'Conductor_'
'Columns_'
'Choosing_'
'Billion_'
'Architect_'
'Analyst_'
'46'
'125_'
'104_'
' : { _'
'wizards_'
'unmatched_'
'telecom_'
'suggest_'
'sponsor_'
'spans_'
'routable_'
'micro_'
'learners_'
'launching_'
'informational_'
'illustrated_'
'former_'
'ee'
'ded_'
'consultative_'
'boots_'
'ban'
'asks_'
'VDS_'
'Safe_'
'Patterns_'
'NONE_'
'Loop_'
'GA'
'Dimensions_'
'Ca'
'CO'
'CM'
'CCA_'
'Back'
'Among_'
'92'
'8GE_'
'21'
' ® ) _'
'traversal_'
'titles_'
'sprawl_'
'routine_'
'reception_'
'rank_'
'pan_'
'nearest_'
'logout_'
'ld_'
'impossible_'
'faults_'
'failing_'
'externally_'
'examination_'
'defend_'
'cumulative_'
'asynchronous_'
'YES_'
'XMTR_'
'SIP10_'
'Mixed_'
'MDF_'
'GBE_'
'Extensive_'
'CSA_'
'Age_'
'ATION_'
'42'
'15'
'versatile_'
'treat_'
'ships_'
'se'
'quantities_'
'plugin_'
'payout_'
'night_'
'mainly_'
'les_'
'lean_'
'filled_'
'duties_'
'contractor_'
'charged_'
'cart_'
'boards_'
'black_'
'User'
'Simply_'
'SNMPv3_'
'PrimeTM_'
'Involved_'
'Inline_'
'Importing_'
'Ideal_'
'IO'
'Generally_'
'Entering_'
'DSA_'
'Classful_'
'Cell_'
'CAL_'
'B250_'
'ADV_'
'97_'
'86'
'2950_'
'08'
' ? ( _'
'yours_'
'sub'
'stringent_'
'stolen_'
'softphone_'
'sectors_'
'safely_'
'predictive_'
'pluggable_'
'perceived_'
'officers_'
'multiarea_'
'living_'
'interruption_'
'illustration_'
'guarantees_'
'font_'
'folders_'
'empowers_'
'ec'
'drawing_'
'comprises_'
'che'
'ca'
'breaks_'
'Un'
'Transforming_'
'Toggle_'
'Ti'
'SW'
'Rating_'
'Plans_'
'Netformx_'
'NEBS_'
'Left_'
'LIST_'
'Ko'
'GLBP_'
'ET_'
'Ds_'
'Divert_'
'Control4_'
'CU'
'1000'
'' '
'# '
' _'
'unsupported_'
'ton_'
'suspect_'
'seem_'
'returning_'
'measurable_'
'difficulty_'
'determination_'
'contingent_'
'bi'
'Ta'
'SSIDs_'
'Requested_'
'Pre'
'NDA_'
'Lesson_'
'Inter'
'Initiate_'
'Improvement_'
'Ha'
'Gra'
'GigabitEthernet0_'
'GMT_'
'Flex'
'Eastern_'
'EAST_'
'Describes_'
'DP'
'Container_'
'Compared_'
'Ba'
'ADSLoISDN_'
'ACEs_'
'720p_'
'450'
'" '
' ? ] ] >_'
'warranties_'
'tri'
'renewed_'
'publication_'
'parity_'
'of'
'mails_'
'importantly_'
'hypervisors_'
'gi'
'fa'
'disclose_'
'corrected_'
'converging_'
'contiguous_'
'competitiveness_'
'competency_'
'claiming_'
'ar'
'Win'
'WebDialer_'
'VC'
'Unlock_'
'Topic_'
'SingleConnect_'
'SDF_'
'Proposition_'
'Programmable_'
'Preparation_'
'Pages_'
'PI'
'PDUs_'
'PAB_'
'Octal_'
'Machines_'
'JPEG_'
'Investigate_'
'Introduce_'
'ICD_'
'Fulfillment_'
'Detected_'
'DVR_'
'CDR_'
'Bio'
'$ { _'
'wealth_'
'shortcuts_'
'serviceability_'
'resort_'
'reader_'
'react_'
'rd_'
'permitting_'
'offset_'
'no'
'ko'
'insertion_'
'erased_'
'children_'
'abbreviated_'
'] _'
'WRT300N_'
'Viewer_'
'Unauthorized_'
'Solid_'
'Services'
'S'
'Quota_'
'Printer_'
'Prevent_'
'Ph_'
'Passwords_'
'NUMBER_'
'My'
'Layout_'
'Images_'
'Historical_'
'Hi'
'Extending_'
'Ethernet0_'
'Entire_'
'E7_'
'E6'
'Debug_'
'Classic_'
'CWM_'
'Buyer_'
'8GB_'
'1x'
'1010_'
'zA_'
'vehicles_'
've'
'territory_'
'standing_'
'sheets_'
'resolutions_'
'reimbursement_'
'rd'
'posting_'
'persons_'
'interview_'
'ina'
'ftp_'
'contacting_'
'car'
'bulk_'
'all'
'adjustment_'
'VN_'
'Trojan_'
'Spaces_'
'SF'
'Respond_'
'Resiliency_'
'Re'
'R5_'
'Promotional_'
'ON'
'Jobs_'
'Illegal_'
'HBAs_'
'Entertainment_'
'Ent_'
'E2'
'Concepts_'
'Chongqing_'
'CTO_'
'Body_'
'Background_'
'Attenuator_'
'Applicable_'
'Amplifier_'
'ASBR_'
'91_'
'8E1_'
'53'
'2x'
' * '
'validations_'
'ut_'
'upto_'
'unites_'
'ubiquitous_'
'sleep_'
'sed_'
'reserve_'
'relates_'
'raw_'
'prone_'
'preceding_'
'nts_'
'ns'
'multiprotocol_'
'ible_'
'hospitals_'
'bly_'
'bin_'
'aligns_'
'adhere_'
'UN'
'Sort_'
'Simplicity_'
'SRP_'
'Require_'
'Representative_'
'Projects_'
'NA'
'Multiarea_'
'Invoices_'
'GROUP_'
'Excellence_'
'Engines_'
'Di'
'Deliverables_'
'DLCIs_'
'Competition_'
'Blocklist_'
'BSS_'
'BR2_'
'BO'
'AT'
'6K_'
'54'
'1000v_'
' \\ " '
' , & _'
'tmp_'
'terminating_'
'pressures_'
'personalize_'
'outdated_'
'obvious_'
'locating_'
'inter'
'im'
'floors_'
'faulty_'
'ets_'
'downloadable_'
'constrained_'
'century_'
'ating_'
'Stay_'
'Service'
'Retry_'
'Recommendation_'
'QUESTION_'
'PSPP_'
'NT'
'N20_'
'Micro_'
'MODEM_'
'Light_'
'Integrates_'
'Inputs_'
'GigabitEthernet_'
'Funds_'
'Functionality_'
'FC'
'Ex_'
'EA'
'Codes_'
'CF_'
'CFO_'
'CAS_'
'51'
'1510_'
'01'
' . : _'
' , ' _'
'zation_'
'tried_'
'stacked_'
'shipments_'
'researchers_'
'reductions_'
'phishing_'
'lengths_'
'ia_'
'fund_'
'differs_'
'degrees_'
'charts_'
'centre_'
'authorities_'
'audiences_'
'Versions_'
'Uni'
'Trademarks_'
'Sustainable_'
'Selectica_'
'Road_'
'Responsibilities_'
'PDR10'
'NetworkingCompany_'
'Modems_'
'MM'
'Listeners_'
'EXISTING_'
'Diagnostic_'
'Defaults_'
'Completion_'
'CN_'
'Assignments_'
'Agreements_'
'ANA_'
'94'
'720'
'70'
'102_'
'Õs_'
'una'
'tftp_'
'subnetworks_'
'repeated_'
'orange_'
'meaningful_'
'ly'
'looked_'
'initiator_'
'initiating_'
'inclusion_'
'generations_'
'friends_'
'expandability_'
'exclude_'
'du'
'district_'
'commissioned_'
'citizen_'
'carriers_'
'TRAINER_'
'SOFTWARE_'
'Registrar_'
'RM_'
'PLIM_'
'PII_'
'PC5_'
'Locale_'
'Le'
'Latest_'
'LOBs_'
'Installer_'
'GPL_'
'Figures_'
'Examining_'
'Encourage_'
'E4'
'DU'
'CMX_'
'CA'
'BPX_'
'ASM_'
'97'
'87_'
'2520_'
'180_'
'15TXQ_'
'xml_'
'society_'
'scaled_'
'referring_'
'predict_'
'plate_'
'outbreak_'
'organisation_'
'kits_'
'hit_'
'enforcing_'
'comm_'
'ber'
'accesses_'
'ac'
'Work'
'VP'
'ToR_'
'Survivable_'
'Steve_'
'Reboot_'
'RPM_'
'Ma'
'MDIX_'
'IoT_'
'IS'
'HOME_'
'GSS_'
'G4_'
'Facilities_'
'Expired_'
'EUI_'
'Disabling_'
'Device'
'Determines_'
'Despite_'
'DD'
'D9901_'
'Cmpnstn_'
'Certificates_'
'Audience_'
'AS5X_'
'4K_'
'35'
'23'
'001_'
'with'
'verticals_'
'upsell_'
'sorted_'
'shtml_'
'segmented_'
'sa'
'prove_'
'pointer_'
'modulation_'
'ke'
'intercluster_'
'get'
'et'
'ep'
'encrypts_'
'crd_'
'com'
'categorized_'
'^ '
'[ '
'VT'
'Reverse_'
'Panda_'
'NP'
'NC'
'HDM_'
'FL'
'Ensuring_'
'Datagram_'
'Cloud'
'CSAT_'
'CAC_'
'Assessments_'
'Alias_'
';_'
'7604_'
'67'
'5e_'
'5010_'
'37'
'1ADSL_'
'! '
' ( -_'
' " ) _'
'wirelessly_'
'vNIC_'
'ures_'
'uninstall_'
'tra'
'shdsl_'
'quarters_'
'promotes_'
'ped_'
'mutual_'
'mod_'
'ming_'
'microphones_'
'ma'
'leveraged_'
'leasing_'
'incompatible_'
'holes_'
'headend_'
'gra'
'ert'
'en'
'electric_'
'editable_'
'der'
'considers_'
'confusion_'
'chapters_'
'blended_'
'beneficial_'
'accessories_'
'Zealand_'
'Yahoo_'
'Unfortunately_'
'UPOE_'
'Submission_'
'Street_'
'Sichuan_'
'Prisma_'
'Pause_'
'Pair_'
'Never_'
'Much_'
'MSCP_'
'MIME_'
'Later_'
'Invite_'
'Homepage_'
'Handset_'
'GT'
'GE'
'EMI_'
'Chambers_'
'Attend_'
'Article_'
'Agency_'
'ANLG_'
'; _'
'72'
'58'
'57'
'500'
'18'
'09'
'04'
' ? ” _'
'venture_'
'uncheck_'
'transported_'
'preserving_'
'photo_'
'launches_'
'it'
'gaming_'
'eliminated_'
'dependencies_'
'approver_'
'VCs_'
'Until_'
'TKIP_'
'TCAM_'
'Sup720_'
'Segmentation_'
'Se'
'Rename_'
'RS'
'PVID_'
'PN_'
'PAC_'
'Options'
'OPTION_'
'James_'
'Hidden_'
'Gig_'
'GRWIC_'
'Functional_'
'Focused_'
'Experts_'
'Erase_'
'Editor_'
'EEM_'
'Developing_'
'Decryption_'
'DO'
'CR_'
'Bare_'
'ASA5520_'
'62'
'1B_'
'1760_'
' * *_'
'â_'
'vo'
'vWAAS_'
'unplanned_'
'ta_'
'sync_'
'successors_'
'rename_'
'reasonably_'
'rc'
'prevented_'
'paragraph_'
'opposed_'
'occured_'
'nces_'
'io_'
'interpret_'
'inconsistent_'
'graphs_'
'gift_'
'fragmented_'
'ff'
'extract_'
'eth'
'durations_'
'ds'
'dialer_'
'crisis_'
'complimentary_'
'back'
'auxiliary_'
'altered_'
'agenda_'
'VSVM_'
'Transmit_'
'Time'
'Specification_'
'SPI_'
'SN'
'SLAAC_'
'SFPs_'
'SEs_'
'RE'
'PVCs_'
'PIP_'
'Others_'
'LOB_'
'IWE_'
'Expo_'
'Executives_'
'Draft_'
'Correlation_'
'BL'
'650_'
'5m_'
'5548UP_'
'4GHz_'
'41'
'3350_'
' ” ) , _'
' \\ % ( _'
' # ._'
'whichever_'
'webcast_'
'weak_'
'us'
'under'
'trademark_'
'paused_'
'outs_'
'midrange_'
'lbs_'
'ki'
'is'
'io'
'holder_'
'dy_'
'discovers_'
'disadvantages_'
'beside_'
'banners_'
'article_'
'Was_'
'WEST_'
'VLAN'
'Usually_'
'Upgrading_'
'Speech_'
'SU'
'SPA'
'Replication_'
'PortChannel_'
'Phillips_'
'PRO'
'PH'
'Opening_'
'Mo'
'Li_'
'Ka'
'Hierarchy_'
'GMNODE_'
'Destinations_'
'DM'
'Credentials_'
'Controlled_'
'Concept_'
'CAR_'
'BlackBerry_'
'Bdle_'
'Baseline_'
'91'
'7900_'
'17'
' ] )_'
' > ( _'
'west_'
'venue_'
'traditionally_'
'revert_'
'raised_'
'quoted_'
'out'
'mutually_'
'heading_'
'geographies_'
'encrypting_'
'dis'
'consultant_'
'brands_'
'ation'
'ade'
'Wrong_'
'WA'
'Uplinks_'
'Swap_'
'Su'
'RI'
'RA'
'PXM1E_'
'Optimizing_'
'Open'
'MWAM_'
'Hi_'
'Gi0_'
'GA_'
'G5_'
'EasyLink_'
'Customizable_'
'BT_'
'Aruba_'
'2mm_'
' | '
' : * _'
'variations_'
'sponsored_'
'referencing_'
'redirection_'
'recall_'
'pro'
'portals_'
'partitions_'
'ory_'
'organisations_'
'officials_'
'mature_'
'lo'
'investigation_'
'insufficient_'
'hw_'
'hiring_'
'electronically_'
'develops_'
'demos_'
'continuum_'
'consequences_'
'congested_'
'ci'
'ceiling_'
'calculator_'
'branding_'
'audible_'
'assumptions_'
'aligning_'
'Terminology_'
'System'
'Stacking_'
'Robust_'
'Reserve_'
'Q1'
'Population_'
'Playback_'
'Offline_'
'Logout_'
'Laptop_'
'LL'
'Dead_'
'Collect_'
'CW'
'CMS_'
'Balancing_'
'BRANCH2_'
'AL'
'71'
'64FL_'
'4pt_'
'43'
'408_'
'zeros_'
'work'
'suggests_'
'substantially_'
'siloed_'
'nd'
'nA'
'key'
'indirectly_'
'highlighting_'
'hackers_'
'flu'
'exabytes_'
'dictate_'
'densities_'
'defaulted_'
'ces_'
'caution_'
'authorize_'
'arrangement_'
'abilities_'
'WiSM_'
'VGA_'
'Thin_'
'TP'
'Schools_'
'Relations_'
'Realtime_'
'Queries_'
'Metal_'
'Landscape_'
'ICPA_'
'Highlights_'
'Goals_'
'Finland_'
'Fewer_'
'FO_'
'Expanded_'
'Equivalent_'
'End'
'EG'
'Data'
'Brief_'
'Batch_'
'Acceptance_'
'82'
'7700_'
'4451_'
'2S'
'2921_'
' : -_'
' + '
' ) + _'
'und'
'tenants_'
'switch'
'strictly_'
'somewhat_'
'smallest_'
'shareholders_'
'rural_'
'rt'
'reveal_'
'remainder_'
'propagation_'
'peace_'
'linking_'
'inherent_'
'ime_'
'freeing_'
'criminals_'
'constructed_'
'collects_'
'checksum_'
'bidirectional_'
'WiMAX_'
'Weighted_'
'VISM_'
'Usrs_'
'Super'
'RouterB_'
'Router'
'Permissions_'
'PV_'
'PKA_'
'Out'
'OSC_'
'New'
'Negotiation_'
'Finding_'
'Cooling_'
'Beginning_'
'Aggregate_'
'Affairs_'
'7603S_'
'6513_'
'248_'
'1550nm_'
'15500_'
'1310DFB_'
' \\ \\ _'
' \\ ._'
'x8_'
'streamlines_'
'showed_'
'shifts_'
'restriction_'
'publishing_'
'produces_'
'prerequisite_'
'powering_'
'opinion_'
'locale_'
'loader_'
'izing_'
'interior_'
'hearing_'
'ga'
'funded_'
'exceeding_'
'do'
'dat_'
'confirming_'
'assisted_'
'WFwdTx_'
'VLAN1_'
'Traceroute_'
'Supplies_'
'Scenarios_'
'SC'
'RC'
'Preparing_'
'Personnel_'
'PC6_'
'Maps_'
'MTP_'
'MENT_'
'MAN_'
'Immersive_'
'IE'
'ICND2_'
'Hat_'
'Gi'
'FD'
'EMEAR_'
'Den'
'CNS_'
'BR'
'Assist_'
'Anytime_'
'Addl_'
'AS'
'ACAD_'
'722_'
'65535_'
'52'
' * ._'
'zoom_'
'transformed_'
'strip_'
'sensing_'
'pursue_'
'partially_'
'mar'
'joins_'
'fi'
'executable_'
'encourages_'
'employer_'
'cool_'
'brightness_'
'blinking_'
'basically_'
'attainment_'
'assured_'
'WI'
'VRRP_'
'V3_'
'Sha'
'SPAs_'
'Receipt_'
'Moreover_'
'Measurement_'
'KVM_'
'Italian_'
'Intercompany_'
'Integrating_'
'InfiniBand_'
'Inactive_'
'Ether'
'EM'
'Da'
'Courses_'
'CSF_'
'5M_'
' ) & _'
'uni'
'une'
'underscores_'
'twenty_'
'stuff_'
'seems_'
'scans_'
'sacrificing_'
'retirement_'
'recursive_'
'quit_'
'presales_'
'port'
'momentum_'
'mo'
'mirroring_'
'mb'
'humidity_'
'housing_'
'fraction_'
'foot_'
'ff_'
'existence_'
'evolves_'
'dropping_'
'disrupt_'
'cultural_'
'criminal_'
'consecutive_'
'concurrency_'
'clocking_'
'clips_'
'charging_'
'can'
'auto'
'ati'
'Voltage_'
'VAM2_'
'Temporary_'
'Synchronous_'
'Searching_'
'SAMI_'
'Resolve_'
'Programming_'
'Positive_'
'Per'
'PR'
'Optimal_'
'Offices_'
'OLTP_'
'Malicious_'
'LSP_'
'Insights_'
'Initiatives_'
'Flip_'
'Exploring_'
'Callback_'
'CT5760_'
'Balance_'
'BRANCH1_'
'ActiveX_'
'99'
'8106_'
'7606S_'
'4FXO_'
'48U_'
'4400_'
') '
'! _'
' < > ._'
'web'
'transformational_'
'trans'
'timed_'
'stacks_'
'spots_'
'screening_'
'revise_'
'pt'
'promptly_'
'prepares_'
'predictability_'
'partitioning_'
'overwrite_'
'ne'
'ncy_'
'localization_'
'lacks_'
'ker_'
'ir_'
'hazardous_'
'contributions_'
'authenticating_'
'authenticates_'
'assistants_'
'an'
'Yet_'
'Workstation_'
'Tri'
'Transceiver_'
'Switch'
'Sup2_'
'Responsible_'
'RSS_'
'QuickStart_'
'PEC_'
'ONs_'
'NO'
'MTA_'
'M2M_'
'LA_'
'ICMH_'
'IAD881_'
'Helping_'
'Chairman_'
'CGS_'
'BY_'
'BP'
'BC'
'Addition_'
'AGREEMENT_'
'77'
'535_'
'210_'
'2017_'
'15TXL_'
'1240_'
'1000Base_'
'zes_'
'widespread_'
'validating_'
'upg_'
'txt_'
'thirds_'
'spot_'
'sn'
'ou'
'ns340_'
'multitenant_'
'liable_'
'ley_'
'hip_'
'formatting_'
'forecasting_'
'federation_'
'executes_'
'enclosure_'
'diameter_'
'decides_'
'consumes_'
'constitute_'
'complexities_'
'cation_'
'bed_'
'arrows_'
'analyzes_'
'afford_'
'activating_'
'Vendors_'
'VE'
'Sync_'
'Smart'
'Picture_'
'PPTP_'
'NetAcad_'
'Neighbors_'
'NGC_'
'Multimode_'
'Mix_'
'Mason_'
'MOC_'
'MGCP_'
'LC'
'Ho'
'HSPA_'
'Flt_'
'Feed_'
'Electric_'
'Eight_'
'Dr_'
'Differentiation_'
'Consultancy_'
'Concerns_'
'Combining_'
'Clustering_'
'Cameras_'
'CATEGORY1_'
'C200_'
'B2_'
'Amazon_'
'7dBm_'
'68'
'27'
'1530_'
'1100_'
'07'
' . ​_'
'velocity_'
'ut'
'trailer_'
'telling_'
'sta'
'sounds_'
'poll_'
'newsletter_'
'negotiations_'
'natively_'
'migrations_'
'lu'
'ka'
'fore'
'enforces_'
'divert_'
'dashes_'
'contribution_'
'broker_'
'begun_'
'WCCP_'
'VSAN_'
'VO'
'TC'
'Switzerland_'
'Sustainability_'
'Supervisors_'
'Sup'
'Suggested_'
'Srvr_'
'Responses_'
'REGISTRATION_'
'Platinum_'
'Payments_'
'PRE'
'PHY_'
'Old_'
'Notepad_'
'MT'
'Kbps_'
'Investments_'
'IRD_'
'Huawei_'
'HS'
'ESPx_'
'CallConnector_'
'Blocking_'
'BUN_'
'Announcement_'
'Above_'
'95'
'5300_'
'170_'
'12pt_'
'100G_'
' ... '
'| '
'virtualizing_'
'told_'
'ta'
'st'
'rollover_'
'programmed_'
'pri'
'oldest_'
'maybe_'
'ja'
'int_'
'greetings_'
'graded_'
'forecasts_'
'flashes_'
'exchanging_'
'emphasis_'
'dia'
'consultation_'
'conditioning_'
'by'
'WE'
'VOICE_'
'Shuttle_'
'SYSTEM_'
'SSDs_'
'Requirement_'
'RTA_'
'Pe'
'Parts_'
'POP3_'
'Multiservice_'
'MB'
'Identities_'
'IA'
'GGSN_'
'ERS_'
'Claims_'
'Already_'
'AE'
'89'
'61'
'5580_'
'4948_'
'400'
'2way_'
'11agn_'
' ’ '
' . % _'
'usernames_'
'ucs_'
'street_'
'stories_'
'regulation_'
'reactive_'
'pressed_'
'pka_'
'partnering_'
'ol'
'modularity_'
'mezzanine_'
'metropolitan_'
'logos_'
'interconnection_'
'il_'
'go'
'flags_'
'eu'
'el'
'eg'
'dispute_'
'differentiators_'
'corrupt_'
'conf_'
'colon_'
'ciscocapital_'
'cached_'
'bc_'
'ad'
'academic_'
'abstraction_'
'Tu'
'TECH_'
'Sho'
'STANDARD_'
'SO'
'SKU1_'
'Recurring_'
'Rear_'
'Prod_'
'Powerful_'
'Portland_'
'Placement_'
'Pak_'
'POAB_'
'OR'
'Lastly_'
'FSM_'
'Ex'
'En'
'DV_'
'CONFIG_'
'CARD_'
'Branch2_'
'Ab'
'96'
'7921G_'
'7606_'
'59'
'160GB_'
' * * _'
'worm_'
'validity_'
'uninterrupted_'
'suites_'
'stating_'
'sis_'
'sequences_'
'scientific_'
'rp'
'retired_'
'multiparty_'
'maturity_'
'ional_'
'intercept_'
'int'
'initialize_'
'imperative_'
'end'
'doors_'
'documenting_'
'cyber_'
'ct_'
'contexts_'
'coded_'
'clinical_'
'bold_'
'attendance_'
'Unexpected_'
'Solaris_'
'SHA_'
'SCE8000_'
'SBRS_'
'Reload_'
'PickUp_'
'Mean_'
'Me'
'Matter_'
'Mail'
'Localization_'
'LAGs_'
'Flag_'
'Factors_'
'Eq_'
'Demux_'
'DS1_'
'DID_'
'DFA_'
'Continued_'
'Coach_'
'Child_'
'Bo'
'Blog_'
'BP_'
'Adds_'
'87'
'64F_'
'600'
'3D_'
'3310_'
'1995_'
' € _'
' = > _'
'versa_'
'ul_'
'triple_'
'theatre_'
'secures_'
'res_'
'mostly_'
'mentoring_'
'la'
'ks_'
'involvement_'
'ht'
'friend_'
'finalize_'
'directs_'
'conventional_'
'cars_'
'bri'
'blueprint_'
'ali'
'adjusting_'
'addressable_'
'So'
'Sch'
'SPEC'
'Reminder_'
'Priorities_'
'OC192c_'
'N2K_'
'Mary_'
'Lan'
'LS'
'Interest_'
'IM'
'Generated_'
'Friday_'
'Finesse_'
'Chicago_'
'CRYPTO_'
'C460_'
'Break_'
'Assuming_'
'5540_'
') ._'
' : " _'
' _'
'”_'
'’ _'
'talked_'
'subsequently_'
'stays_'
'silicon_'
'remedy_'
'outsourced_'
'libraries_'
'jo'
'intimacy_'
'grey_'
'food_'
'ers'
'discrete_'
'deviations_'
'despite_'
'depicted_'
'defenses_'
'considerable_'
'collectively_'
'clone_'
'chip_'
'autoconfiguration_'
'affiliated_'
'Various_'
'Tell_'
'Starts_'
'St_'
'Scorecard_'
'Reservation_'
'RM'
'QOS_'
'Post'
'Performing_'
'Participate_'
'Microphone_'
'McAfee_'
'Made_'
'MAB_'
'LY_'
'Insight_'
'IME_'
'Extends_'
'Expanding_'
'Easier_'
'De_'
'Clean'
'CCM_'
'Amendment_'
'Alternative_'
'911_'
'3c_'
'252_'
'% '
' : ] _'
'vely_'
'transmitter_'
'sd'
'ringtone_'
'resolves_'
'reliance_'
'radically_'
'miss_'
'mechanical_'
'inefficient_'
'hr_'
'hand'
'gen_'
'foster_'
'forcing_'
'figures_'
'emphasize_'
'dragging_'
'doctors_'
'decryption_'
'calculating_'
'broadcasting_'
'VDSL2_'
'USE_'
'S2'
'Repair_'
'RD'
'QuickVPN_'
'Queues_'
'Quarter_'
'Procedures_'
'Placing_'
'Op'
'Michael_'
'Mc'
'LinkedIn_'
'Leveraging_'
'LE'
'Jim_'
'HBA_'
'Escalation_'
'Deployed_'
'DATE_'
'Continuity_'
'Certain_'
'CM4_'
'BMC_'
'Ar'
'Approver_'
'Ag'
'Acknowledgement_'
'850_'
'50K_'
'4096_'
'3x_'
'24X7X4OS_'
'155'
'twelve_'
'tolerant_'
'teleworking_'
'suspend_'
'relying_'
'ral_'
'proposes_'
'positively_'
'phrase_'
'mitigating_'
'micro'
'measuring_'
'lookups_'
'locks_'
'invoked_'
'informs_'
'har'
'hacker_'
'framing_'
'encounters_'
'electronics_'
'elect_'
'corrupted_'
'corporations_'
'containment_'
'avoided_'
'assuming_'
'aren_'
'alter_'
'absence_'
'Unavailable_'
'Tone_'
'Sup2T_'
'Soft'
'Registry_'
'Quick'
'Portlet_'
'Modified_'
'MoH_'
'MSP_'
'LightStream_'
'Learned_'
'Key'
'ICMPv6_'
'Height_'
'EU'
'ED'
'Dialog_'
'DMM_'
'Culture_'
'Collision_'
'CTL_'
'CO2_'
'CAN_'
'Bringing_'
'BOOTP_'
'BN'
'ASICs_'
'AR'
'AAC_'
'881G_'
'443_'
'340_'
'230_'
'1998_'
'1997_'
'1470_'
' —_'
'viable_'
'v4_'
'user'
'thereof_'
'salary_'
'procure_'
'orientation_'
'optimally_'
'offs_'
'nu'
'nti'
'multinational_'
'mi'
'mainstream_'
'linear_'
'interpretation_'
'inexpensive_'
'in'
'fraud_'
'fabrics_'
'exploring_'
'everyday_'
'erver_'
'deciding_'
'corrective_'
'concurrently_'
'barrier_'
'accountable_'
'Ya'
'TITLE_'
'Subscribe_'
'Subnet'
'Star_'
'Socket_'
'S4_'
'RFGW_'
'ProtectLink_'
'PfR_'
'PRI'
'Operators_'
'Olympic_'
'Months_'
'Med_'
'Indicator_'
'IGP_'
'Hu'
'He'
'GMLE_'
'GI'
'Flows_'
'FS_'
'Eco_'
'Digest_'
'DBE_'
'Century_'
'Canadian_'
'C2_'
'Bre'
'BR_'
'Assigning_'
'Accelerating_'
'= '
'4HWIC_'
'250'
'202_'
'130'
'"_'
' ” '
' = $ _'
' ( % )_'
'totals_'
'survivability_'
'streamlining_'
'ss'
'solved_'
'restoration_'
'reinforce_'
'quota_'
'ption_'
'principle_'
'opposite_'
'oc'
'moderator_'
'med_'
'hu'
'employers_'
'ely_'
'coding_'
'cited_'
'certainly_'
'capacities_'
'breakout_'
'arriving_'
'ap'
'\\ " _'
'WRR_'
'VSI_'
'VMWare_'
'Svs_'
'Straight_'
'Securely_'
'Russian_'
'Reward_'
'Refers_'
'Put_'
'Power'
'Portable_'
'Poor_'
'Orange_'
'Mar'
'Labor_'
'LO'
'Ki'
'Including_'
'GPS_'
'EX90_'
'Do'
'Customizing_'
'Coordinator_'
'CDS_'
'CAPF_'
'Bridging_'
'Blackberry_'
'Away_'
'870MHz_'
'640_'
'256D_'
'22'
'128F_'
' ] ' _'
' : ^ [ _'
'uniform_'
'um'
'ua'
'support'
'sto'
'solves_'
'servicing_'
'sA'
'prefixes_'
'po'
'network'
'netsol_'
'imposed_'
'icmp_'
'happened_'
'gauge_'
'encapsulate_'
'eg_'
'conserve_'
'connectionless_'
'clarity_'
'cisco123_'
'basics_'
'anchor_'
'advised_'
'\u _'
'V1_'
'Specifying_'
'Specified_'
'STM64c_'
'SB_'
'Retrieve_'
'Relevant_'
'RY_'
'RSVP_'
'RMB_'
'OP'
'Ni'
'Minutes_'
'MKII_'
'LLW_'
'LISP_'
'Known_'
'Jo'
'Intg_'
'Imagine_'
'INSERT_'
'Go'
'FM'
'FF02_'
'FAN_'
'Envelopes_'
'Disc'
'De'
'Curriculum_'
'Comment_'
'CiscoUnifiedCallManager_'
'CI_'
'CAT'
'BiDi_'
'BA'
'AI'
'ACCESS_'
'AB'
'9900_'
'888_'
'886_'
'7304_'
'3at_'
'3CXL_'
'256'
') , _'
'wa'
'tor_'
'spa'
'set'
'sensitivity_'
'selector_'
'ric'
'pushing_'
'prospective_'
'precise_'
'portfolios_'
'para'
'pa'
'multipurpose_'
'multichannel_'
'locking_'
'internetworking_'
'iii_'
'iPads_'
'handsets_'
'flexibly_'
'eye_'
'con'
'complements_'
'cabinet_'
'bootup_'
'beamforming_'
'articles_'
'ack_'
'abuse_'
'XXX_'
'X4'
'WAVE_'
'UME2_'
'Triple_'
'Synchronization_'
'Stack'
'Si'
'SBC_'
'PSS02'
'NetBIOS_'
'Modifying_'
'Media'
'Maker_'
'LBS_'
'Journal_'
'Isolated_'
'IANA_'
'False_'
'FP'
'FE80_'
'ESR_'
'EOS_'
'Directive_'
'DesignXpert_'
'DX600_'
'D9854_'
'CMTS_'
'CLICK_'
'Boot'
'BS'
'76'
'31'
'239_'
' ’ , _'
'yield_'
'ur'
'tower_'
'timestamp_'
'tactical_'
'starter_'
'sS'
'rn'
'propose_'
'pr'
'penalties_'
'patents_'
'paging_'
'ner_'
'na'
'milestones_'
'li'
'jump_'
'isco_'
'ir'
'heat_'
'governmental_'
'governing_'
'ging_'
'geolocation_'
'ext'
'expose_'
'edition_'
'disposal_'
'discounting_'
'des_'
'de'
'complies_'
'clustered_'
'buffers_'
'benchmarks_'
'Video'
'Ultimately_'
'UR'
'Tera_'
'Te'
'Targeted_'
'Structured_'
'Sol'
'Sends_'
'Round_'
'Paste_'
'Motorola_'
'Modern_'
'Marks_'
'Likewise_'
'Letter_'
'Lea'
'Korean_'
'Hosting_'
'Har'
'Fast'
'EOL_'
'CI'
'CAP'
'Boston_'
'AG_'
'44'
'20G_'
'12K_'
'03'
' : + _'
' ) “ _'
'yr_'
'ya'
'visualization_'
'ving_'
'vi'
'uploads_'
'th'
'tan'
'surrounding_'
'subsidiaries_'
'sports_'
'significance_'
'requisite_'
'ps9'
'prime_'
'portlets_'
'nf'
'mal'
'lots_'
'jurisdiction_'
'invoke_'
'ins'
'injector_'
'footer_'
'fo'
'explosion_'
'elastic_'
'discounted_'
'diagnosis_'
'developments_'
'demarcation_'
'data'
'dangerous_'
'curve_'
'counterparts_'
'convention_'
'conform_'
'conclusion_'
'colored_'
'closure_'
'cho'
'buffering_'
'ads_'
'Vulnerability_'
'VS_'
'VA'
'UR_'
'TH'
'StadiumVision_'
'Splitter_'
'SB'
'PowerPoint_'
'Placed_'
'Permanent_'
'Packages_'
'PT'
'PRO_'
'PL_'
'OI'
'Notwithstanding_'
'Nations_'
'ND'
'Min'
'Miercom_'
'ML'
'Lights_'
'Lease_'
'LVS_'
'KE'
'Intranet_'
'Interference_'
'Helpline_'
'Headquarters_'
'Favorite_'
'D1_'
'Com_'
'CSG_'
'C3560X_'
'BAC_'
'Achieving_'
'9SS_'
'960_'
'6001_'
'20K_'
'1751_'
'1000T_'
' \\ "_'
'unreliable_'
'unb'
'tuned_'
'tly_'
'tens_'
'systematic_'
'sys_'
'safeguard_'
'realizing_'
'readers_'
'randomly_'
'ramp_'
'persists_'
'per'
'ics_'
'hence_'
'ft'
'expenditure_'
'engineered_'
'distant_'
'db8_'
'clinics_'
'catch_'
'briefly_'
'ast'
'ani'
'am'
'acquiring_'
'WR'
'Vector_'
'UC500_'
'Throughout_'
'Theatre_'
'Temp_'
'TM'
'Suppliers_'
'Story_'
'Stand_'
'Simplifying_'
'SVP_'
'SV'
'SE'
'SDEE_'
'Prospects_'
'Precedence_'
'PD_'
'Or'
'MBR_'
'LL_'
'IPR_'
'Fo'
'Evolving_'
'Downloading_'
'Displaying_'
'DRIVER_'
'Commissioning_'
'Chart_'
'C10000_'
'Bottom_'
'Att'
'ATA_'
'>_'
'903_'
'544_'
'3400_'
'2T'
'29'
'2300_'
'15s_'
'11i_'
'112_'
'111_'
' . • _'
' ) : '
' ( )_'
'wake_'
'ver'
'uncover_'
'tu'
'tester_'
'rti'
'revealed_'
'reloaded_'
'predetermined_'
'ph'
'partner'
'outer_'
'linksys_'
'lessons_'
'interfere_'
'ine_'
'forum_'
'forming_'
'fairly_'
'exporting_'
'easiest_'
'dialogue_'
'dashboards_'
'colleague_'
'ates_'
'anti'
'alike_'
'Workplace_'
'ULs_'
'Transitions_'
'Ste'
'STI_'
'SCM_'
'Resilient_'
'Qualify_'
'Purchasing_'
'Procurement_'
'Proceed_'
'Premises_'
'PV'
'PA'
'Opens_'
'Malaysia_'
'Mal'
'LOM_'
'JPN_'
'Immediate_'
'Hear_'
'Except_'
'Eth_'
'Estimates_'
'Economist_'
'ENHANCED_'
'Deviation_'
'Depth_'
'D9'
'Conc'
'CNA_'
'CEF_'
'CCP_'
'CCH_'
'Black_'
'BA_'
'B440_'
'Approximate_'
'Accessory_'
'Abbreviated_'
'8G_'
'880_'
'4way_'
'4507R_'
'30K_'
'1TB_'
'12c_'
'1280_'
' ] ] _'
' > '
'webpage_'
'upgradable_'
'tive_'
'teaming_'
'statistical_'
'ssh_'
'sourcing_'
'sight_'
'rl'
'registers_'
'redistribute_'
'proposals_'
'ny_'
'ier_'
'freight_'
'extreme_'
'expressions_'
'eb'
'deterministic_'
'cybersecurity_'
'contention_'
'awarded_'
'attended_'
'accessory_'
'absolute_'
'Z0_'
'Workload_'
'WiSM2_'
'Views_'
'Via_'
'TY_'
'TR_'
'Subinterfaces_'
'Sockets_'
'Simplification_'
'Signatures_'
'Siebel_'
'Sciences_'
'SXP_'
'STORAGE_'
'Releases_'
'Red'
'RD_'
'Pu'
'Privileged_'
'Payload_'
'PCB_'
'Onboarding_'
'Novell_'
'Logic_'
'ISDP_'
'Genuine_'
'FPI_'
'EO'
'ENet_'
'Dates_'
'DSLAM_'
'DKIM_'
'Charge_'
'CMB_'
'Bar'
'Affordable_'
'AI_'
'910_'
'80km_'
'7961G_'
'73'
'2X'
'146GB_'
'123_'
' } , _'
' + ( _'
' ( { _'
'wrap_'
'watching_'
'vSwitch_'
'tro'
'theoretical_'
'sha'
'scripting_'
'rolled_'
'oF_'
'multisite_'
'microwave_'
'ino'
'incrementally_'
'impaired_'
'grounding_'
'exterior_'
'exercises_'
'excited_'
'evolutionary_'
'evaluates_'
'em'
'elsewhere_'
'earthquake_'
'down'
'di'
'denying_'
'demonstrating_'
'curricula_'
'creative_'
'check'
'autonegotiation_'
'augment_'
'anymore_'
'WMM_'
'Train_'
'Studio_'
'Sold_'
'S1'
'Relative_'
'Reject_'
'Orchestrator_'
'OfficeExtend_'
'Null_'
'Methodology_'
'Makers_'
'Limits_'
'LL1550nm_'
'Jumbo_'
'IF'
'Her'
'HVAC_'
'Granular_'
'GVRP_'
'Faceplate_'
'Ether_'
'Ensures_'
'Diversity_'
'DCB_'
'Condition_'
'Chs_'
'CUWP_'
'CIS'
'C4'
'Behavior_'
'Att_'
'Analyzing_'
'AS5400HPX_'
'9300_'
'64K_'
'3RU_'
'3BXL_'
'1q_'
' ] ( _'
' < '
'worry_'
'vectors_'
'vPath_'
'use'
'tor'
'swap_'
'subt'
'su'
'samples_'
'rugged_'
'roughly_'
'roadmaps_'
'restarts_'
'remediate_'
'questionnaire_'
'postal_'
'pictures_'
'patent_'
'oo'
'monetize_'
'maximizes_'
'guided_'
'excel_'
'enormous_'
'encouraging_'
'electromagnetic_'
'disasters_'
'ction_'
'coworkers_'
'au'
'assessed_'
'age'
'adjusts_'
']_'
'Zones_'
'VICs_'
'Utilize_'
'Under'
'Tests_'
'Strengthen_'
'Sizing_'
'STR'
'SET_'
'Rejected_'
'Redial_'
'QT'
'Profiling_'
'PSK_'
'Omni_'
'OT'
'Newsletter_'
'Intuitive_'
'Increasingly_'
'INT'
'I1_'
'HO'
'Foundational_'
'EE'
'Dictionary_'
'Demo'
'DN'
'DL_'
'Conversations_'
'Climate_'
'Bri'
'Approximately_'
'An'
'Along_'
'@ '
'8230_'
'74'
'5525_'
'39'
'3750G_'
'10Gb_'
' | / | _'
' + )_'
'variation_'
'ty'
'tactics_'
'supplement_'
'subcluster_'
'sive_'
'silent_'
'refine_'
'pm_'
'openness_'
'onal_'
'notifies_'
'nThe_'
'military_'
'lity_'
'laser_'
'knowledgeable_'
'ities_'
'ineligible_'
'inactivity_'
'her'
'haven_'
'fulfilling_'
'eti'
'ent'
'educate_'
'doubt_'
'deviation_'
'dc'
'court_'
'correspond_'
'correction_'
'cookies_'
'consumerization_'
'constituents_'
'commercially_'
'bounced_'
'be'
'assists_'
'as'
'acknowledged_'
'Watts_'
'Verizon_'
'Verifies_'
'Va'
'Teleworker_'
'Tablet_'
'Sy'
'Style_'
'SUP'
'S3'
'Robert_'
'Retention_'
'RU'
'Proc_'
'Principles_'
'Pl'
'Ntwrk_'
'Neither_'
'Nearly_'
'Mr_'
'Meanwhile_'
'Macro_'
'MOTD_'
'LR'
'Intercloud_'
'Gen'
'GL'
'Frequently_'
'FI_'
'Exp_'
'EX60_'
'Driven_'
'DRE_'
'Congratulations_'
'CiscoS'
'Cancellation_'
'CCME_'
'C24_'
'Buffer_'
'BI'
'BHCA_'
'B2'
'Arch_'
'Advertising_'
'Activity'
'Access'
'ABC_'
'8540_'
'7008P_'
'6940_'
'5555_'
'4S'
'3725_'
'1P'
'111'
' * * '
'weather_'
'traversing_'
'tia'
'thousand_'
'symmetric_'
'supernet_'
'subtracks_'
'sts_'
'strategically_'
'sf'
'separates_'
'reversed_'
'replicate_'
'readable_'
'polling_'
'payable_'
'ore_'
'ist_'
'ism_'
'interrupted_'
'intercompany_'
'integrations_'
'initialization_'
'ingly_'
'ger_'
'geo'
'empowering_'
'economical_'
'east_'
'dynamics_'
'cur'
'cookie_'
'combo_'
'ate'
'advise_'
'^ _'
'Young_'
'Whenever_'
'Ways_'
'View'
'Unmanaged_'
'Tel_'
'Stretch_'
'Sig_'
'Server1_'
'SPT_'
'Rebates_'
'NLS1_'
'Mod'
'Manageability_'
'Makes_'
'Intgrtd_'
'IPS'
'HDX_'
'Games_'
'Fu'
'Ext_'
'Enhances_'
'Eliminate_'
'EP'
'EI'
'Denied_'
'Cooperation_'
'Cha'
'CCD_'
'C40_'
'Bracket_'
'BUSINESS_'
'Affiliate_'
'7613_'
'63'
'15TXR_'
'128'
'yo'
'workshops_'
'wishes_'
'wIPS_'
'va'
'usr_'
'tcp_'
'tailor_'
'redirects_'
'ranked_'
'pulled_'
'pretty_'
'overflow_'
'navigating_'
'my'
'manipulate_'
'man'
'lowercase_'
'likelihood_'
'layouts_'
'inquiries_'
'infinite_'
'ic'
'ia'
'houses_'
'fundamentally_'
'doc_'
'distributing_'
'deck_'
'decades_'
'coaching_'
'cfg_'
'bu'
'base'
'arrived_'
'arrival_'
'arrays_'
'ain'
'aggregates_'
'ables_'
'Unre'
'TVs_'
'TT'
'TLV_'
'TES_'
'TBD_'
'Sim'
'SECURITY_'
'Roaming_'
'Reviewing_'
'RTB_'
'REC'
'Provided_'
'Portuguese_'
'POC_'
'Offered_'
'OPEX_'
'MIT_'
'Ke'
'Held_'
'Graphical_'
'GLC_'
'GB'
'Fiscal_'
'FULL_'
'FAB_'
'Encoding_'
'Egress_'
'EBC_'
'DE'
'Cat'
'CON_'
'CIP_'
'CHS3'
'CHS2'
'CHS1'
'C3750X_'
'C11_'
'Booked_'
'Address'
'8x'
'550'
'5020_'
'120'
'0W_'
' . ” '
'x2_'
'win'
'vs'
'usability_'
'ure'
'tr_'
'ther'
'teacher_'
'shorten_'
'shell_'
'sh'
'serviced_'
'selective_'
'sco'
'ration_'
'ps10'
'obsolete_'
'nice_'
'midsized_'
'mi_'
'leakage_'
'injury_'
'informal_'
'han_'
'fluid_'
'expedite_'
'exiting_'
'cs'
'collapsed_'
'centralize_'
'calculates_'
'at'
'arrange_'
'are'
'administered_'
'absolutely_'
'YYYY_'
'Uns'
'UX_'
'Tom_'
'Smith_'
'Slow_'
'Sensors_'
'Ru'
'Port'
'Plays_'
'Pin_'
'Permission_'
'Periodic_'
'PRE2_'
'Override_'
'OL'
'OC'
'Name'
'Listening_'
'LSDB_'
'HIPAA_'
'Group'
'Fe'
'FY14_'
'FS'
'FCPA_'
'Exceptional_'
'D9844_'
'Competitors_'
'Classroom_'
'Cardbus_'
'CT5508_'
'CIMC_'
'CBR_'
'Balanced_'
'Backhaul_'
'Asynchronous_'
'AUX_'
'AU'
'8900_'
'83'
'8250_'
'1w_'
'10G'
' [ % _'
' / ._'
' , # _'
'young_'
'wo'
'visually_'
'vent'
'unsure_'
'unsolicited_'
'sustained_'
'subsidiary_'
'standardize_'
'read'
'ranking_'
'raising_'
'ps2961_'
'pruning_'
'producing_'
'preset_'
'policing_'
'paired_'
'oni'
'negatively_'
'nce'
'mem_'
'ler_'
'interpreted_'
'interacts_'
'interacting_'
'hundred_'
'helpdesk_'
'gu'
'graduate_'
'globalization_'
'falling_'
'est'
'emailed_'
'disclosed_'
'consolidates_'
'cmd_'
'chains_'
'capita_'
'associating_'
'art'
'aim_'
'activates_'
'X45'
'We'
'Venture_'
'UCS'
'UBR10012_'
'Turn'
'Transcode_'
'Solve_'
'Rob'
'RSP720_'
'Protects_'
'Protecting_'
'Patient_'
'POWER_'
'Onboard_'
'NextGen_'
'N5000_'
'MIBs_'
'Larger_'
'LAN'
'L2TP_'
'Instructors_'
'Info'
'ISQ_'
'HI'
'GC'
'Expectations_'
'Effort_'
'EIM_'
'Decimal_'
'Decide_'
'Dealer_'
'CiscoIPCommunicator_'
'CWS_'
'CAT_'
'Attached_'
'Assume_'
'8P'
'8500_'
'729_'
'66'
'642_'
'4RU_'
'144_'
'003_'
' ( * ) _'
'your'
'yields_'
'varied_'
'vMotion_'
'theme_'
'subsystem_'
'staying_'
'stamp_'
'residing_'
'replaceable_'
'reboots_'
'probability_'
'pit'
'pet'
'percentages_'
'packs_'
'outbreaks_'
'ori'
'op'
'notifying_'
'netstat_'
'line'
'initialized_'
'indeed_'
'impressive_'
'ical_'
'favor_'
'ei'
'dr_'
'customizing_'
'concluded_'
'collective_'
'classrooms_'
'cally_'
'behave_'
'ball_'
'badge_'
'arrangements_'
'ard_'
'arbitrary_'
'approaching_'
'amazing_'
'XT_'
'WM'
'VOD_'
'Tuning_'
'Tested_'
'Telco_'
'Star'
'Secret_'
'SRV_'
'SERVER_'
'Rs_'
'Restaurant_'
'Realize_'
'RR_'
'Paul_'
'PDAs_'
'OpenStack_'
'OTU_'
'Nu'
'Normally_'
'MultiSite_'
'Mitigation_'
'MO'
'Ju'
'Investigating_'
'Instances_'
'Indoor_'
'Facilitate_'
'Exceptions_'
'Encrypt_'
'ECC_'
'Dinner_'
'Decrease_'
'Datacenter_'
'DL'
'DIG_'
'Counter_'
'Comparing_'
'Charger_'
'Cellular_'
'CH2'
'C6509_'
'C60_'
'BU'
'BE6K_'
'Agt_'
'ASP_'
'870_'
'5760_'
'251_'
'180'
'1006_'
'( $ _'
' | | _'
' : ] [ : _'
' * ( _'
'ys'
'x1'
'ward_'
'voicesw_'
'translating_'
'time'
'sublayer_'
'staging_'
'slowly_'
'sT'
'rigorous_'
'representations_'
'receivers_'
'ratings_'
'ps12'
'parents_'
'paradigm_'
'nearby_'
'nP'
'municipal_'
'ls'
'logins_'
'letting_'
'keepalive_'
'jacks_'
'inherently_'
'ime'
'ha'
'framerate_'
'ey'
'embracing_'
'eco_'
'deletes_'
'bl'
'author_'
'ane'
'Ver'
'Ve'
'VLAN10_'
'T1'
'Sur'
'ST'
'SGA_'
'SDRAM_'
'RFCs_'
'RAC_'
'Pools_'
'Plant_'
'Orchestration_'
'OpenSSL_'
'NV'
'NAT'
'Mirror_'
'Manages_'
'Loyalty_'
'Linear_'
'LU'
'Jan_'
'Incidents_'
'Host2_'
'Handle_'
'Hadoop_'
'GS'
'FICON_'
'Enhancing_'
'Dev_'
'Customization_'
'Consequently_'
'Calculating_'
'CNAs_'
'CMC_'
'CM5_'
'CIVS_'
'Bi'
'B420_'
'Anomaly_'
'AG'
'72GB_'
'7201_'
'06'
' | [ _'
' : ^ [ ] _'
' . " '
' " " _'
'zo'
'workgroups_'
'wor'
'wipe_'
'versatility_'
'vNICs_'
'unpredictable_'
'ule'
'tho'
'substitute_'
'ste'
'spine_'
'sooner_'
'shareholder_'
'ri'
'rela'
'punch_'
'publications_'
'prize_'
'pd'
'panes_'
'og'
'mid'
'merged_'
'kernel_'
'journal_'
'inserting_'
'ink_'
'handheld_'
'fragment_'
'faces_'
'enti'
'ea'
'decrypt_'
'commitments_'
'clientless_'
'cleaning_'
'aims_'
'abort_'
'abandon_'
'aa'
'\\ " '
'Wideband_'
'War'
'WWChannels_'
'Upstream_'
'Upgd_'
'Unplug_'
'Unlimited_'
'Unify_'
'Uncheck_'
'UCCE_'
'Trial_'
'Tagging_'
'Security'
'Sea'
'Sca'
'SWITCH_'
'SIM_'
'Rev'
'Realm_'
'Ratio_'
'Postal_'
'Pain_'
'PXE_'
'Over'
'Limiting_'
'Indicators_'
'IPC'
'IAD888_'
'Hang_'
'Extra_'
'E5'
'Developed_'
'Confrn_'
'Confidentiality_'
'Combine_'
'Changed_'
'CON'
'CITEIS_'
'C1_'
'B3_'
'Advertise_'
'ASA5540_'
'7941G_'
'7815SE_'
'550_'
'2928_'
'152_'
'1490_'
'ust'
'ultra_'
'trending_'
'traverses_'
'top'
'strive_'
'stress_'
'sso'
'showcase_'
'ser_'
'ry'
'qualifications_'
'pure_'
'propagating_'
'pose_'
'pods_'
'plugs_'
'plastic_'
'pipe_'
'pc'
'ose_'
'obtains_'
'oC_'
'ns224_'
'ni'
'negotiating_'
'minimized_'
'mention_'
'lift_'
'lay_'
'islands_'
'interconnections_'
'hospitality_'
'hi'
'heads_'
'hea'
'gov_'
'foregoing_'
'extensively_'
'ess'
'ere'
'employing_'
'eagle_'
'disrupting_'
'depicts_'
'del'
'def'
'creator_'
'circle_'
'charger_'
'cat'
'bea'
'ba'
'arises_'
'Yr_'
'WC'
'VSANs_'
'Transponder_'
'Streamlined_'
'Sections_'
'Scr'
'SO_'
'REST_'
'REA'
'Questionnaire_'
'Premise_'
'Phone'
'Pay'
'POD_'
'PE'
'NIC'
'MSC_'
'Icons_'
'ITIL_'
'INT_'
'INFORMATION_'
'GR'
'Emphasize_'
'Echo_'
'EV_'
'DFC4_'
'Collab_'
'Cancelled_'
'Calculation_'
'CUP_'
'CM3_'
'C3'
'Atlanta_'
'Agent'
'Accurate_'
'Accelerates_'
'6p_'
'64667C_'
'3X_'
'1U_'
'0dBm_'
' \\ " , \\ " _'
' ( ' _'
' " % _'
'verdict_'
'undone_'
'ul'
'toolkit_'
'tip_'
'tion'
'theaters_'
'ster'
'sion_'
'sel'
'sand_'
'sD'
'retains_'
'repeatedly_'
'renamed_'
'prop'
'policer_'
'pin'
'opinions_'
'ons'
'om_'
'oi'
'nickname_'
'mono'
'implied_'
'ideally_'
'hotspots_'
'hm'
'gt'
'grading_'
'formation_'
'fl'
'fidelity_'
'fetching_'
'evi'
'dra'
'disadvantage_'
'differential_'
'dep'
'den'
'defects_'
'db'
'crossing_'
'conventions_'
'colleges_'
'boot'
'accidental_'
'ably_'
'Wa'
'Tomorrow_'
'Syn'
'Sal'
'STA'
'SOA_'
'Router2_'
'Router0_'
'Receipts_'
'Reasons_'
'RX_'
'RG'
'PPS_'
'OTN_'
'Laws_'
'Kerberos_'
'Je'
'Indonesia_'
'For'
'ETHERNET_'
'Definitions_'
'Datastore_'
'DMS_'
'DL320_'
'DH'
'Committed_'
'Combo_'
'Ckt_'
'Chris_'
'Capable_'
'CH5'
'Bridges_'
'Blended_'
'Bid_'
'B230_'
'B22_'
'Avail_'
'AV'
'AON_'
'< > ’ _'
'6944_'
'5545_'
'30W_'
'302_'
'2C'
'15K_'
'129_'
'115_'
' ) . '
'wise_'
'ven_'
'urs'
'uring_'
'sm_'
'similarly_'
'sequential_'
'scanner_'
'resets_'
'relief_'
'regards_'
'refreshes_'
'quantify_'
'pillars_'
'payback_'
'outsource_'
'outlets_'
'originates_'
'offsite_'
'listens_'
'leg_'
'indi'
'improperly_'
'il'
'ide'
'ica'
'hes_'
'fied_'
'ex'
'ele'
'duplicated_'
'derive_'
'counterfeit_'
'contributed_'
'concentrator_'
'coax_'
'claimed_'
'ches_'
'chats_'
'centered_'
'batteries_'
'aspx_'
'WAP121_'
'UTC_'
'Test'
'Telstra_'
'TSF_'
'Sunfire_'
'Sol_'
'Selector_'
'Scientific_'
'Rockwell_'
'Risks_'
'Reg'
'Radius_'
'RCA_'
'RB'
'QTY1_'
'QRT_'
'Perspective_'
'PaaS_'
'Ordered_'
'OCS_'
'OB'
'Networked_'
'Navigating_'
'Multiservices_'
'Multirate_'
'Multiplexing_'
'Moves_'
'Mid'
'IMS_'
'Going_'
'Fire'
'Fin'
'Es_'
'Empower_'
'E1'
'DomainKeys_'
'David_'
'Consumers_'
'Construction_'
'Columbia_'
'CG'
'Buildings_'
'Basics_'
'BM'
'Authenticated_'
'Associates_'
'Arabic_'
'8dBm_'
'8510_'
'2X_'
'288_'
'1a'
'1A'
'15252_'
' } { _'
' &_'
'whereby_'
'violate_'
'tutorial_'
'tic'
'sustain_'
'super_'
'sma'
'sitting_'
'silver_'
'searched_'
'reservationless_'
'redistributed_'
'reads_'
'qua'
'promises_'
'prevalent_'
'police_'
'pli'
'personalization_'
'overrides_'
'ot_'
'nk'
'lm'
'lling_'
'ite'
'ised_'
'ine'
'guess_'
'extranet_'
'envelopes_'
'ect'
'eT'
'disc'
'derivative_'
'damages_'
'da_'
'credential_'
'cle'
'ca_'
'borrow_'
'blood_'
'bat'
'air'
'agnostic_'
'adequately_'
'UCC_'
'UAS_'
'Talk'
'TEI_'
'She'
'Restrictions_'
'Redistribution_'
'Rail_'
'RV_'
'RV082_'
'RF'
'Prl_'
'Posture_'
'PROGRAM_'
'PDSN_'
'Orientation_'
'OFF_'
'OD'
'Natural_'
'NGIPS_'
'NET'
'Ministry_'
'MPO_'
'MIC_'
'Ku'
'Immunity_'
'IAC_'
'Hot'
'Han'
'Fi'
'Dijkstra_'
'Dave_'
'Consultant_'
'Clause_'
'CiscoUnified_'
'Ci'
'Charges_'
'CallMgr5_'
'CV'
'CICS_'
'CH3'
'Avg_'
'Asian_'
'Approve_'
'Antivirus_'
'728'
'154'
'10dBm_'
'0x'
' > , _'
'§ _'
'ug'
'typed_'
'ticketing_'
'specifics_'
'relations_'
'rarely_'
'proximity_'
'pres'
'positives_'
'payroll_'
'ord'
'onePK_'
'one'
'ns517_'
'nar'
'multiservice_'
'morning_'
'monetization_'
'manufactured_'
'kes_'
'initiation_'
'infection_'
'imagine_'
'ily_'
'ght_'
'fresh_'
'fla'
'fellow_'
'expectation_'
'edits_'
'dwelling_'
'distinctive_'
'defective_'
'crosses_'
'bribery_'
'bounces_'
'bndl_'
'bio'
'aries_'
'anyway_'
'ama'
'VD'
'Tower_'
'Than_'
'Spo'
'Smartphones_'
'Serviceability_'
'SLED_'
'Rest_'
'Responsibility_'
'Renewals_'
'Reader_'
'RBAC_'
'Projected_'
'Pick_'
'PEAP_'
'Mechanical_'
'Measure_'
'McKinsey_'
'Individuals_'
'Improvements_'
'II'
'IDSM_'
'ICQ_'
'Glossary_'
'GM'
'Fire_'
'FTA_'
'FAC_'
'Eng3_'
'Encoder_'
'Elastic_'
'EEA_'
'Downtime_'
'DX_'
'Cert_'
'CL'
'BN_'
'Agile_'
'Aban_'
'ASR1001_'
'9971_'
'93'
'80GB_'
'61000_'
'1YR_'
'1004_'
' → _'
' ” — _'
' ! !_'
'ured_'
'unsubscribe_'
'unsu'
'thru_'
'ther_'
'ten'
'susceptible_'
'struggle_'
'stereo_'
'ssion_'
'scene_'
'resumes_'
'restricts_'
'restoring_'
'resetting_'
'ratios_'
'pti'
'preserved_'
'ordinary_'
'ops_'
'ol_'
'nsi'
'nation_'
'mu'
'ms'
'measurements_'
'ked_'
'ita'
'instructed_'
'insecure_'
'imperatives_'
'htm_'
'hop'
'helper_'
'harder_'
'gn'
'farms_'
'exits_'
'disa'
'digest_'
'difficulties_'
'degrade_'
'consoles_'
'conducts_'
'con_'
'bdle_'
'avoids_'
'att'
'asymmetric_'
'archiving_'
'ance'
'address'
'adaptable_'
'accumulated_'
'ac_'
'X3'
'WEB_'
'WAP321_'
'VR'
'VPC_'
'UCSM_'
'Traditionally_'
'Tracker_'
'TE'
'Stor'
'Sli'
'Sales'
'SGACL_'
'SBR_'
'RPF_'
'Packaging_'
'PVDM_'
'Outcomes_'
'OpenAM_'
'NT78_'
'NETGEAR_'
'Mac'
'Lt_'
'LIN'
'LA'
'L1_'
'JA'
'Initially_'
'GNU_'
'Funding_'
'Fellow_'
'Estate_'
'Er'
'ET'
'EMS_'
'Dollars_'
'Differentiate_'
'DB'
'Chas_'
'Ch'
'Candidate_'
'Cal'
'CUPC_'
'CT_'
'CMBE_'
'CAPEX_'
'Asked_'
'Anti'
'Against_'
'622_'
'4510R_'
'42MHz_'
'3dBm_'
'226_'
'16T1_'
'15310_'
'100Mbps_'
'010_'
'* * * _'
'!_'
' . . _'
' ) ,_'
' ( ._'
'wasted_'
'vel'
'unlocked_'
'undo_'
'ud'
'transact_'
'sur'
'speeding_'
'severe_'
'sb'
'sampling_'
'redesign_'
'pulses_'
'privately_'
'pic'
'multicore_'
'minus_'
'metro_'
'mail'
'll'
'intend_'
'incremented_'
'inability_'
'gui'
'file'
'exponentially_'
'eases_'
'drawn_'
'disconnects_'
'demo'
'cryptography_'
'compound_'
'bel'
'bases_'
'bar'
'Z0001_'
'WS'
'VXSM_'
'VXR_'
'Trunk'
'TER'
'Smooth_'
'Rates_'
'Proactively_'
'Posting_'
'Partner'
'PRT_'
'Offset_'
'Meter_'
'Mediatrace_'
'Main'
'LSPs_'
'LAB_'
'Joe_'
'Intra_'
'IES_'
'ICD3_'
'Hence_'
'HO_'
'GigaE_'
'Gifts_'
'GP'
'GMSA_'
'Fix_'
'Federation_'
'EndCall_'
'Draw_'
'Dis'
'DNA_'
'Congestion_'
'Comp'
'Com'
'Cisco7'
'Chan_'
'Car'
'CWM15_'
'C210_'
'Benchmark_'
'BDL_'
'Automate_'
'Anyone_'
'Analysys_'
'Alcatel_'
'ACMC_'
'ABRs_'
'950_'
'650'
'16GB_'
'150'
'103_'
'0x0'
'} '
'ur_'
'unsecured_'
'tom'
'tasked_'
'shortly_'
'rity_'
'rie'
'retrieves_'
'responded_'
'render_'
'relays_'
'realistic_'
're'
'quotebuilder_'
'queried_'
'pro_'
'pl'
'overs'
'nslookup_'
'none'
'ngs_'
'nc'
'moderate_'
'mailboxes_'
'legally_'
'iti'
'instructs_'
'ines_'
'inc_'
'inappropriate_'
'implies_'
'ide_'
'gold_'
'emerge_'
'dm'
'dev_'
'dealer_'
'daemon_'
'cra'
'cp'
'copyrighted_'
'centralization_'
'bugs_'
'awards_'
'advancements_'
'ZX_'
'Xerox_'
'VAMS_'
'UN_'
'UA'
'Transit_'
'Topologies_'
'Ter'
'Storm_'
'Spain_'
'Skype_'
'SITE_'
'SCP_'
'Random_'
'Precision_'
'Pr'
'Objects_'
'Notices_'
'Ne'
'Mer'
'Intercept_'
'Initiated_'
'Indicate_'
'IPT_'
'IIS_'
'Hypertext_'
'Hospitality_'
'HL'
'GO'
'GDPR_'
'Film_'
'Enforce_'
'EasyVPN_'
'DT'
'DIS'
'DA_'
'Counters_'
'Contrast_'
'Cn'
'CX'
'CSApp_'
'Banking_'
'Ban'
'As'
'Almost_'
'Aging_'
'ARE_'
'900'
'750'
'5550_'
'290'
'2232PP_'
'1G'
'1920_'
'113'
' ― _'
' [ + ] _'
' ) \\ _'
' ' $ $ _'
' $ $ _'
'webex_'
'we'
'war'
'uncertainty_'
'ular_'
'thrive_'
'test'
'temp'
'surge_'
'suits_'
'semi_'
'revisions_'
'renewable_'
'registrations_'
'reconfiguration_'
'ra'
'popularity_'
'perspectives_'
'pe'
'oft'
'nter'
'nic_'
'nes_'
'moments_'
'microsoft_'
'longevity_'
'locator_'
'lli'
'knew_'
'instructional_'
'inadequate_'
'iDivert_'
'household_'
'host'
'gross_'
'granting_'
'fetch_'
'explaining_'
'eva'
'escalating_'
'encoders_'
'dispatch_'
'designations_'
'cc'
'cal'
'blinds_'
'auth_'
'ante'
'allocating_'
'\\ '
'Webcast_'
'VID_'
'Ultra_'
'Thailand_'
'TRA'
'Switch2_'
'Sullivan_'
'Stra'
'Sngl_'
'Rollover_'
'Rogue_'
'Representatives_'
'R2'
'Peak_'
'PSP_'
'PL'
'Off'
'Municipal_'
'MOH_'
'MCUs_'
'M1'
'Logged_'
'Living_'
'LB'
'Ip'
'Ignore_'
'IdP_'
'Home'
'Hai'
'HT'
'GetLastError_'
'Exclusive_'
'Emulation_'
'Earth_'
'EXT_'
'Doc_'
'Discover'
'DP_'
'Connect'
'Combines_'
'Col'
'CSVT_'
'CHA'
'CH4'
'Bel'
'BB'
'Around_'
'Amber_'
'All'
'Aberdeen_'
'AA'
'836_'
'7975G_'
'5dBm_'
'3800X_'
'210'
'201'
'1X'
'1C'
'192'
'ype_'
'volatile_'
'van'
'vDC_'
'uns'
'systematically_'
'stra'
'storms_'
'standpoint_'
'ssi'
'sits_'
'retrospective_'
'raises_'
'rail_'
'omp'
'noticed_'
'nic'
'muted_'
'mt'
'merger_'
'mandates_'
'loans_'
'je'
'hotspot_'
'hired_'
'granularity_'
'fifth_'
'escalated_'
'ees_'
'eas'
'discards_'
'directing_'
'dc_'
'call'
'budgetary_'
'blend_'
'ative_'
'achievement_'
'ace_'
'accidentally_'
'XC_'
'Wis'
'WARNING_'
'VA_'
'UBT_'
'TI'
'TA_'
'Sw'
'Spltr_'
'Speakerphone_'
'Sm'
'SAT'
'Rising_'
'Resetting_'
'ROMmon_'
'RC_'
'Pipeline_'
'Past_'
'Palo_'
'OU'
'Nothing_'
'NW_'
'Mitigate_'
'Margin_'
'MPCI_'
'MAN'
'Lucent_'
'LPS_'
'LEVEL_'
'Inspect_'
'IPs_'
'Hay_'
'HR'
'Gu'
'File'
'Families_'
'FDDI_'
'Educational_'
'Dr'
'Designate_'
'Dep'
'DTLS_'
'DST_'
'Con'
'Composite_'
'Carbon_'
'Cancer_'
'CU_'
'CMCS_'
'Bro'
'And'
'Aids_'
'APPL_'
'< '
'902_'
'8U_'
'891_'
'6921_'
'526_'
'3010_'
'2651XM_'
'240V_'
'1918_'
'125'
' ” , “ _'
' ­ _'
' ) " _'
'ze'
'wikis_'
'unconnected_'
'unchanged_'
'tting_'
'trays_'
'titled_'
'thoughts_'
'tenancy_'
'telemetry_'
'telecommunication_'
'taught_'
'slider_'
'sec'
'ress_'
'rede'
'proxies_'
'protective_'
'pp'
'pole_'
'phenomenon_'
'perception_'
'ny'
'nes'
'myself_'
'multi'
'modifies_'
'ml'
'mitigated_'
'mistakes_'
'mistake_'
'live'
'lanes_'
'ju'
'jsp_'
'inserts_'
'influencers_'
'inde'
'gradually_'
'gar'
'fundamentals_'
'expecting_'
'exc'
'ents_'
'empowered_'
'divisions_'
'ders_'
'decoding_'
'cordless_'
'calendaring_'
'bridged_'
'bodies_'
'assembled_'
'announcing_'
'aliases_'
'aids_'
'ages_'
'abouts_'
'Zeus_'
'ZK_'
'Winning_'
'Wei'
'Webtop_'
'VNXe_'
'VER'
'Unused_'
'Unsubscribe_'
'Tuesday_'
'Trivial_'
'Though_'
'Texas_'
'Tel'
'TLVs_'
'Sing'
'Shortcuts_'
'SPPRT_'
'Rooms_'
'Remaining_'
'RFID_'
'Published_'
'Profit_'
'Predict'
'Phrase_'
'Paths_'
'POS'
'PAC'
'Netscape_'
'NR'
'Mon'
'Markup_'
'Mailbox_'
'InterCloud_'
'Install'
'Imported_'
'Hover_'
'GO_'
'Frost_'
'Flu'
'Fair_'
'Evolve_'
'Equal_'
'Dynamics_'
'Displayed_'
'Discard_'
'Denmark_'
'Deliverable_'
'Defending_'
'DX650_'
'Coordination_'
'Converter_'
'Contractual_'
'Clear'
'CallMgr4_'
'Bra'
'BTS_'
'Avoidance_'
'Archives_'
'Applied_'
'Angle_'
'ASC_'
'819_'
'48V_'
'422_'
'3Com_'
'1ea_'
'1996_'
'13TXTS_'
' + ._'
' ) *_'
' $ '
'xp'
'wavelengths_'
'warehouses_'
'wan'
'waiver_'
'verbal_'
'var_'
'vHBA_'
'undertake_'
'tain'
'survive_'
'supplying_'
'subcommand_'
'stopping_'
'start'
'stake_'
'spikes_'
'smart'
'shed_'
'sM'
'rewrite_'
'reorder_'
'removable_'
'regulated_'
'prohibit_'
'prerequisites_'
'oy'
'ow'
'ov'
'orts_'
'ors'
'op_'
'numerical_'
'ntly_'
'nonstop_'
'learner_'
'ld'
'investors_'
'interworking_'
'inte'
'improper_'
'holidays_'
'here'
'expiry_'
'ethics_'
'ela'
'downlink_'
'dem'
'dd'
'cuts_'
'customs_'
'conclusions_'
'cheaper_'
'cast_'
'bonus_'
'ble'
'authorizations_'
'attaches_'
'applet_'
'ame_'
'ambient_'
'aimed_'
'a2'
'ZE'
'VX'
'V5_'
'Untagged_'
'Tour_'
'TRANS'
'Span_'
'Samsung_'
'SMI_'
'SMA_'
'Restrict_'
'Relevance_'
'RMAs_'
'Profiler_'
'Pri'
'Partition_'
'Oct_'
'OVA_'
'NSE_'
'ND_'
'NAP_'
'Mntr_'
'Micro'
'Mari'
'MW_'
'MCS78'
'Life'
'Keeping_'
'Interactions_'
'I4_'
'Horizontal_'
'Harvard_'
'Frame'
'Forgot_'
'Forecasting_'
'Fltr_'
'Fit'
'Fee_'
'Featured_'
'FQDN_'
'Eliminates_'
'EP_'
'Downloads_'
'Dept_'
'DCT_'
'Coming_'
'Clusters_'
'COM'
'CHASSIS_'
'CCDE_'
'C250_'
'C1'
'Breach_'
'Ben'
'BFCP_'
'Argentina_'
'Am'
'Able_'
'ALI'
'AF'
'8T'
'7911G_'
'78'
'576_'
'4B_'
'3ad_'
'3650_'
'3560'
'3048_'
'2c_'
'16E1_'
'1400_'
'126_'
'1080p30_'
'104'
' - ( _'
'xa'
'whiteboard_'
'wanting_'
'unt'
'ual_'
'tighter_'
'terabytes_'
'spe'
'sophistication_'
'sol'
'sho'
'sheet0900aecd80'
'que_'
'ps11'
'ps103'
'planes_'
'peering_'
'ously_'
'nh'
'mental_'
'ists_'
'intercepted_'
'interarea_'
'inc'
'ik'
'ign'
'hing_'
'hex_'
'ham_'
'gin'
'fragmentation_'
'finger_'
'exports_'
'exponential_'
'eo'
'ena'
'emo'
'drawings_'
'dominant_'
'discovering_'
'disconnecting_'
'datastores_'
'dark_'
'crosstalk_'
'contributes_'
'conduit_'
'clamp_'
'centralizing_'
'catalyst_'
'cabled_'
'bs_'
'booting_'
'any'
'add'
'ack'
'X346_'
'Warehouse_'
'VN'
'VH'
'V6_'
'Upper_'
'Una'
'Ultimate_'
'Television_'
'TED_'
'Submitting_'
'Streamline_'
'Str'
'Spar'
'Softkey_'
'STATION_'
'Residence_'
'Requesting_'
'Rep_'
'Policing_'
'Photo_'
'Penetration_'
'Partnerships_'
'PXM_'
'PBR_'
'Objections_'
'OTX_'
'Ns_'
'NEC_'
'Mor'
'Metadata_'
'Lets_'
'Layer'
'Kits_'
'Jeff_'
'Hire_'
'Geo'
'FT'
'Exercise_'
'Elect_'
'Effectively_'
'ERSPAN_'
'Deviations_'
'Controlling_'
'Chi'
'Chengdu_'
'Broad'
'Au'
'Attempts_'
'Advertised_'
'ASF_'
'995_'
'8112_'
'80G_'
'72G_'
'6dBm_'
'5x'
'5B_'
'3200_'
'2G'
'199_'
'146_'
'1225_'
' ” : _'
' } ) _'
' \\_'
' [ # ] _'
' , + _'
'women_'
'widest_'
'tw'
'trees_'
'tin'
'thoroughly_'
'switchover_'
'submits_'
'solar_'
'shapes_'
'server'
'schema_'
'ro_'
'retailer_'
'reproduce_'
'poorly_'
'pertaining_'
'pays_'
'patching_'
'pager_'
'overloaded_'
'obviously_'
'nonblocking_'
'nl'
'nexus_'
'nations_'
'multitude_'
'met'
'magnitude_'
'love_'
'legislation_'
'joe_'
'ite_'
'ise'
'interrupt_'
'interconnecting_'
'infarct_'
'hi_'
'heating_'
'hazards_'
'harmful_'
'gy'
'guys_'
'generator_'
'flagship_'
'expiring_'
'ethical_'
'entr'
'embed_'
'eP'
'departmental_'
'cta'
'csv_'
'cspp_'
'cradle_'
'couldn_'
'converter_'
'contributing_'
'continuance_'
'containers_'
'conforms_'
'coa'
'cn'
'characterized_'
'breakdown_'
'bookmark_'
'audited_'
'attain_'
'anniversary_'
'a1'
'Wrap_'
'Workgroup_'
'WLCs_'
'Vietnam_'
'VPN'
'UDC_'
'Transactional_'
'Tomcat_'
'TION_'
'Standardization_'
'Row_'
'Ret'
'RED_'
'Prototype_'
'Pra'
'Paid_'
'Older_'
'OSS_'
'OG'
'Null0_'
'Nov_'
'NE_'
'MSR_'
'Int'
'Indiv_'
'ISP1_'
'ISATAP_'
'IAD2400_'
'Horizons_'
'Guided_'
'Ground_'
'Gross_'
'GOLD_'
'FR'
'Exceeded_'
'EN61000_'
'Dx_'
'Delta_'
'CustomerRouter_'
'Cor'
'Cmp'
'Cisco1'
'Che'
'Cas'
'CSS11500_'
'CFR_'
'C650'
'BW_'
'BW'
'BR1_'
'? _'
'> '
'8961_'
'6503_'
'4402_'
'3mm_'
'256DR_'
'1S'
'158_'
'105_'
'001'
' .... _'
'xls_'
'wn_'
'wind_'
'wholesale_'
'un'
'tab'
'sit_'
'simplest_'
'secrets_'
'scenes_'
'rv'
'rm'
'restarting_'
'ps5'
'proportion_'
'participated_'
'ow_'
'overdue_'
'operationally_'
'nominal_'
'mm'
'microseconds_'
'mer_'
'manipulation_'
'let'
'ks'
'kW_'
'hereunder_'
'feasibility_'
'encompass_'
'dong_'
'divides_'
'dive_'
'disrupted_'
'die'
'dependable_'
'definitely_'
'cond'
'concludes_'
'compensate_'
'char'
'careers_'
'architected_'
'achieves_'
'accounted_'
'] ] >_'
'VMotion_'
'VLANS_'
'Uninstall_'
'UCSTM_'
'Twinax_'
'TEO_'
'Serve_'
'Secured_'
'STA_'
'SOAP_'
'Rugged_'
'Requisition_'
'Radios_'
'RN'
'RAD_'
'Publishing_'
'Portlets_'
'Philippines_'
'OD_'
'Neutrality_'
'Naming_'
'Modeling_'
'M6_'
'Lowest_'
'LSI_'
'LD_'
'InstallShield_'
'Ine'
'ITaaS_'
'HP'
'Ge'
'Game_'
'Feasible_'
'Faculty_'
'EMCC_'
'Drill_'
'Direct'
'Decisions_'
'Commitment_'
'Claiming_'
'Can'
'C8540_'
'Arc'
'ANM_'
'8TC_'
'7828_'
'3YR_'
'220'
'16U_'
'1536_'
'15216_'
' ] | [ _'
'worst_'
'variants_'
'transformative_'
'touchtone_'
'timelines_'
'themes_'
'tac'
'subs_'
'stre'
'ster_'
'staffed_'
'sc'
'ron'
'rms_'
'repairs_'
'refurbished_'
'rea'
'pushes_'
'pitch_'
'picked_'
'participates_'
'pairing_'
'ome_'
'nm'
'neutral_'
'nder_'
'nSe'
'nS'
'loses_'
'logon_'
'ior_'
'invoicing_'
'institutional_'
'iPhones_'
'headcount_'
'he'
'hal'
'gl'
'era'
'elapsed_'
'earning_'
'dry_'
'descriptive_'
'crediting_'
'credibility_'
'class'
'certify_'
'axis_'
'authorised_'
'ator_'
'appearing_'
'ap_'
'analyses_'
'adapted_'
'Zh'
'Yankee_'
'YS_'
'Whole_'
'WWAN_'
'Vid'
'UL'
'UBR_'
'Tunnels_'
'Trust'
'Strength_'
'StadiumCompany_'
'Spending_'
'Sense_'
'SRTP_'
'SPB_'
'SNMPv1_'
'SGTs_'
'Regulations_'
'Redirect'
'Rapidly_'
'RSP'
'Propose_'
'Prioritize_'
'PrecisionHD_'
'Places_'
'Paks_'
'ODBC_'
'OA_'
'Numbered_'
'NG'
'Listing_'
'Leaf_'
'LP'
'LLIII_'
'IntelliShield_'
'Injector_'
'Identified_'
'ITU2'
'Host'
'Horizon_'
'Head'
'HMAC_'
'GET'
'GEN_'
'Fla'
'Facilitates_'
'FT_'
'F3_'
'Exporting_'
'Exclude_'
'Everywhere_'
'EX'
'EPG_'
'ENC_'
'Disclaimer_'
'Defender_'
'DI_'
'DCDR_'
'Crd_'
'Configset_'
'Clearly_'
'Carolina_'
'COUNTRY_'
'C2'
'BTS10200_'
'BD'
'Appropriate_'
'Apache_'
'AXP_'
'ASDM_'
'ANT'
'AGC445_'
'8way_'
'822_'
'4T1_'
'48c_'
'384'
'2P'
'240'
'1Gbps_'
'170'
'.. _'
' . { _'
' , % _'
' ) = _'
'yt'
'ym'
'wav_'
'val'
'upl'
'unusual_'
'tta'
'truth_'
'town_'
'steal_'
'spreadsheets_'
'she'
'ros'
'rew'
'resend_'
'recorder_'
'ple'
'physicians_'
'pertinent_'
'pe_'
'pathways_'
'partnered_'
'oversight_'
'om'
'ology_'
'objection_'
'nb'
'movies_'
'miniGBIC_'
'metering_'
'macros_'
'loose_'
'loan_'
'intruders_'
'intermittent_'
'integrators_'
'ges_'
'genuine_'
'flagged_'
'eyes_'
'ern'
'encapsulating_'
'eld'
'drastically_'
'disp'
'disclaimer_'
'dict'
'cu'
'construed_'
'configset_'
'configs_'
'conductor_'
'caught_'
'cap_'
'canceled_'
'botnet_'
'behaves_'
'backlit_'
'ass'
'aside_'
'airports_'
'Yo'
'Ye'
'XLS_'
'Wind_'
'Wal'
'WWN_'
'WLC'
'V4_'
'Up'
'Transwestern_'
'Touchscreen_'
'Ten'
'Table'
'Sys'
'SwitchA_'
'Sweden_'
'Substation_'
'Statements_'
'Simpler_'
'Scores_'
'SPARE_'
'SCBID_'
'SCADA_'
'Reviews_'
'Prev'
'Polycom_'
'Perhaps_'
'Payout_'
'PRICE_'
'Oregon_'
'OTR_'
'Ntwk_'
'NTT_'
'Multilink_'
'Measures_'
'Masters_'
'MAIL_'
'Lippis_'
'Line'
'LD'
'Is'
'Imp'
'HI_'
'Green'
'Floating_'
'Fifty_'
'Farm_'
'FF'
'EV'
'E0_'
'DiffServ_'
'Degree_'
'Commissioned_'
'Caching_'
'CPI_'
'Botnet_'
'Accountability_'
'Acc'
'AH_'
'AAG_'
'793'
'7603_'
'6506_'
'5515_'
'502_'
'4E1_'
'32U_'
'2S_'
'2DC_'
'16K_'
'107_'
'1040_'
'$ '
' € '
' × _'
'yn'
'viewable_'
'vid'
'vertically_'
'vacation_'
'unte'
'unidirectional_'
'transitioned_'
'tp'
'this'
'telecommuters_'
'tar'
'synchronizes_'
'svcs_'
'struggling_'
'sla'
'sixty_'
'shi'
'sen'
'sP'
'rip'
'retries_'
'relied_'
'redial_'
'receptionist_'
'quizzes_'
'prescriptive_'
'preliminary_'
'portability_'
'pixel_'
'pathway_'
'oversubscription_'
'netmask_'
'negotiates_'
'mining_'
'lt_'
'los'
'logy_'
'lic'
'ler'
'holddown_'
'hin'
'handler_'
'groupings_'
'grades_'
'freely_'
'fort'
'finalized_'
'fe_'
'faith_'
'excludes_'
'enter'
'emergencies_'
'earth_'
'eB'
'duty_'
'duplication_'
'distinction_'
'deselect_'
'deci'
'crm_'
'constitutes_'
'confidently_'
'collaboratively_'
'checkboxes_'
'cel'
'broadly_'
'appointed_'
'appendix_'
'alongside_'
'alized_'
'adapts_'
'Ur'
'Tablets_'
'TN_'
'TERMS_'
'Still_'
'Smaller_'
'Semi'
'SY'
'SOCKS_'
'SNF_'
'Pressing_'
'Political_'
'MUST_'
'MORE_'
'MLC_'
'MD_'
'Ken_'
'Jun'
'IDENTITY_'
'ICA_'
'Hall_'
'GR_'
'Forced_'
'Far'
'Evaluating_'
'Established_'
'Employment_'
'Effectiveness_'
'EVN_'
'Dea'
'Davis_'
'DSS_'
'Covered_'
'Cool_'
'CTM_'
'CONTACT_'
'CCS_'
'Borders_'
'Backed_'
'BUT'
'BECN_'
'Ann'
'APPROVED_'
'AGC547_'
'AGC499_'
'< > '
'9134_'
'5400_'
'525_'
'512D_'
'4P'
'4506_'
'4215_'
'2000'
'196'
'1310FP_'
'101'
'1000BT_'
' \u '
' # # _'
'ws'
'wheel_'
'vic'
'upt'
'tilt_'
'summaries_'
'sti'
'spoken_'
'selectively_'
'scorecard_'
'rubber_'
'retransmission_'
'reroute_'
'replicated_'
'renewing_'
'ree'
'profound_'
'pping_'
'polls_'
'philosophy_'
'offloading_'
'occurrence_'
'nte'
'nse'
'nda'
'mn'
'mgmt_'
'lobby_'
'lasting_'
'ish_'
'ile'
'ial'
'hat_'
'founded_'
'flight_'
'filling_'
'femtocell_'
'extensibility_'
'exhibited_'
'equation_'
'entrance_'
'elimination_'
'dv'
'disposition_'
'dictionaries_'
'design'
'delegate_'
'degraded_'
'debt_'
'deactivated_'
'convey_'
'cold_'
'bre'
'bought_'
'bou'
'blinks_'
'bla'
'bet'
'backing_'
'authoritative_'
'assemble_'
'ase'
'arm_'
'analytical_'
'allowable_'
'Xi'
'WSE_'
'WDM_'
'Vlan_'
'VAL_'
'Thr'
'Tech'
'TU'
'Speed'
'Significantly_'
'Secretary_'
'Sat'
'SECTION_'
'SCVMM_'
'Ric'
'Resell_'
'Recommend_'
'Peace_'
'PSIRT_'
'PORT'
'PEMs_'
'Overview'
'Onsite24x7x4_'
'Onsite24x7x2_'
'NPV_'
'NOW_'
'NM'
'NEMA_'
'NB'
'Mn'
'Mentoring_'
'MV'
'Limitations_'
'Leverages_'
'Knowing_'
'Joining_'
'Into_'
'Interconnection_'
'Hazardous_'
'HC'
'H3C_'
'Fab_'
'FTTH_'
'FHRP_'
'Enc'
'ENG'
'EMTA_'
'Drop'
'Dra'
'Digit'
'Dial'
'Deputy_'
'DPC2100_'
'D98'
'Czech_'
'Compromise_'
'COR'
'COMP'
'Breadth_'
'Black'
'BUNDLE_'
'BI_'
'Aug_'
'Allowing_'
'Airflow_'
'Agenda_'
'Adapt_'
'AU_'
'9951_'
'8SlotChass_'
'837_'
'7835I_'
'700'
'6248UP_'
'60W_'
'515E_'
'4th_'
'4C'
'3x'
'1552_'
'1200'
'1111_'
'10A_'
' ® ._'
' ? "_'
' # , _'
'yle'
'wi_'
'weighted_'
'venues_'
'unf'
'undesirable_'
'tapping_'
'sleek_'
'shot_'
'rollback_'
'roam_'
'reused_'
'reusable_'
'ret'
'projector_'
'pac'
'occurrences_'
'ob'
'oad'
'new'
'mitigates_'
'mile_'
'middleware_'
'median_'
'masquerading_'
'lowered_'
'loo'
'logi'
'lies_'
'lens_'
'lab'
'jumbo_'
'jpg_'
'jacket_'
'inv'
'interruptions_'
'interoperates_'
'interface'
'informing_'
'ile_'
'ie'
'ication_'
'hourly_'
'healthy_'
'hanging_'
'experiment_'
'expandable_'
'ew'
'entirety_'
'eat'
'eLearning_'
'doctor_'
'dl'
'dividing_'
'discarding_'
'dial'
'cords_'
'conditional_'
'conc'
'clu'
'booted_'
'boo'
'ational_'
'app'
'alleviate_'
'XPS_'
'Weekly_'
'Trading_'
'Tra'
'Timeline_'
'TL1_'
'TI_'
'Syst_'
'Sun'
'Sto'
'Shadow_'
'San'
'SH'
'RES'
'Quote'
'QuantumFlow_'
'QLogic_'
'Pv'
'Parallel_'
'One'
'Observing_'
'ORDER_'
'N5K_'
'Multis'
'Mentor_'
'Mem_'
'MSSansBold8'
'MSA_'
'MPE_'
'MOU_'
'MAC'
'Link'
'Land_'
'Islands_'
'Invitation_'
'Intr'
'Influence_'
'ISV_'
'HG_'
'Guarantee'
'Globalization_'
'GATEWAY_'
'Excellent_'
'Enclosure_'
'Emulex_'
'Eco'
'ERROR_'
'DH_'
'DEVICE_'
'Crossover_'
'Cra'
'Compelling_'
'Children_'
'CUWN_'
'CCDA_'
'Business'
'Bundl_'
'Bu'
'Arrow_'
'Addon_'
'ASA5505_'
'ASA55'
'; '
'79'
'5548_'
'5512_'
'509_'
'3M_'
'2A'
'246'
'1992_'
'1600'
' = % _'
' $ $ ' _'
'● * _'
'zi'
'xe'
'worse_'
'vtp_'
'unlikely_'
'ub'
'tolerate_'
'tele'
'teamwork_'
'sw'
'stri'
'spi'
'spelling_'
'sl_'
'shing_'
'shadow_'
'revolutionary_'
'remained_'
'reli'
'reconfigured_'
'reap_'
'pulling_'
'prompting_'
'probes_'
'posed_'
'plaintext_'
'pilots_'
'phone'
'ont'
'ohm_'
'oe'
'merely_'
'mS'
'lesser_'
'leases_'
'lamp_'
'ironport_'
'introductory_'
'hover_'
'gh'
'ey_'
'escape_'
'ema'
'docking_'
'desks_'
'conductors_'
'colo'
'clearance_'
'cas'
'benefiting_'
'bay_'
'bag'
'assisting_'
'arr'
'arbitration_'
'ants_'
'altitude_'
'alliance_'
'XXXX_'
'Visualization_'
'Verified_'
'Upsell_'
'Unsupported_'
'Treatment_'
'Tokyo_'
'Thomas_'
'THAT_'
'Stock_'
'Sprint_'
'Speak_'
'Sized_'
'Selective_'
'Saves_'
'SL'
'SKU2_'
'Routing'
'Revise_'
'Respondents_'
'Rem'
'Recently_'
'Ranges_'
'Product'
'Pal'
'Packaged_'
'PSE_'
'Official_'
'Needed_'
'Minimal_'
'Manager'
'Male_'
'Incomplete_'
'IVE_'
'INC'
'Hoc_'
'Health'
'Hand_'
'HV'
'HS_'
'Graph_'
'Gathering_'
'Gate_'
'Flags_'
'FY11_'
'FWSM_'
'FECN_'
'FCIP_'
'F5_'
'Eth'
'Enhd_'
'Elect'
'EF_'
'Disables_'
'DW'
'Ct'
'Corp_'
'Communicating_'
'Comm'
'Clue_'
'Clientless_'
'Chassi_'
'CareCore_'
'CQ_'
'CCM'
'Buying_'
'Bus'
'Blinking_'
'Battlecard_'
'AutoSecure_'
'Audium_'
'At'
'Announcements_'
'Agree_'
'ATO_'
'ATE'
'ACLs'
'8X5XNBDOS_'
'8830_'
'8800_'
'792'
'4Gbps_'
'2ea_'
'276_'
'24P_'
'1531_'
'128DR_'
'10M_'
'103'
'& '
' ” )_'
' ” ) '
'{ '
'ye'
'xi'
'x16_'
'wins_'
'widget_'
'vr_'
'visualize_'
'ved_'
'unequal_'
'ult'
'udi'
'ture'
'tre'
'tors_'
'telemarketing_'
'super'
'sp_'
'sin'
'shifted_'
'sells_'
'seeks_'
'sa_'
'ruggedized_'
'retransmit_'
'resubmit_'
'restrictive_'
'rest'
'refu'
'recognizing_'
'pursuing_'
'pts_'
'promoted_'
'predicted_'
'plants_'
'picks_'
'overloading_'
'ock'
'noncondensing_'
'mp_'
'mc'
'listings_'
'last'
'las'
'kt'
'kilometers_'
'ison_'
'install'
'ilt'
'hits_'
'gs'
'funnel_'
'flo'
'fibers_'
'extraordinary_'
'expe'
'ered_'
'equity_'
'eng'
'ef'
'differentiating_'
'deb'
'conservation_'
'consequence_'
'conce'
'ccna_'
'bul'
'bor'
'billions_'
'beat_'
'bdl_'
'bandwidths_'
'backend_'
'allocates_'
'Zi'
'XL'
'XCP_'
'Workloads_'
'Women_'
'WAP'
'UXME_'
'UD'
'UAI_'
'Translate_'
'Technician_'
'TSS_'
'T568A_'
'Strip_'
'Soon_'
'Smarter_'
'Signed_'
'Seven_'
'Ser'
'SUB'
'Revolution_'
'Reusable_'
'QTY_'
'Play'
'Pings_'
'Pass'
'PU_'
'PF'
'NZS_'
'Multipurpose_'
'Mozilla_'
'Monitored_'
'Market'
'MXP_'
'MTBF_'
'MESSAGE_'
'Lia'
'Lat'
'LUNs_'
'Keyboard_'
'IOPS_'
'HCA_'
'H4_'
'GEO_'
'GC_'
'Fragment_'
'Form'
'Female_'
'Face_'
'England_'
'EF'
'Dynamically_'
'Digits_'
'DEN'
'Cost'
'Coat_'
'Charging_'
'Characters_'
'Campaigns_'
'CUP'
'CUCxn_'
'CK'
'CISCO8'
'CCMCIP_'
'BR3_'
'Ants_'
'Allen_'
'Acquisitions_'
'Accepted_'
'9200_'
'800'
'732'
'510_'
'3300_'
'294'
'24TS_'
'2248TP_'
'1T'
'172'
'11111111_'
'100G'
'05'
' ® '
' * , _'
'wit_'
'wall'
'unstable_'
'truncated_'
'temp_'
'telecommuting_'
'stor'
'slowing_'
'rit'
'rent_'
'reimbursable_'
'reform_'
'reen'
'rec'
'realms_'
'promo_'
'pp_'
'play'
'obstacles_'
'nth'
'nta'
'not'
'necessity_'
'multis'
'misc'
'life'
'ku'
'ji'
'integrator_'
'intact_'
'inquiry_'
'inefficiencies_'
'inar'
'ignores_'
'ig'
'ids_'
'identifiable_'
'ib'
'iP'
'headings_'
'hardened_'
'faceplate_'
'err'
'enclosed_'
'eX'
'eS'
'dummy_'
'doubling_'
'don'
'designates_'
'deploys_'
'dependency_'
'deferred_'
'declined_'
'craft_'
'correlate_'
'coordinating_'
'concrete_'
'comparisons_'
'chi'
'bs'
'breakthrough_'
'beep_'
'ara'
'ances_'
'ain_'
'ah'
'access'
'acc'
'ab'
'XAuth_'
'XA1_'
'Wil'
'Were_'
'WAR'
'Val'
'Unix_'
'Turkey_'
'Transceivers_'
'Top'
'ToS_'
'TOS_'
'TD_'
'Summarize_'
'Successor_'
'Ss_'
'Spi'
'Solution'
'Solar_'
'Server2_'
'Sens'
'Segments_'
'Sec'
'Scales_'
'SX20_'
'SUBJECT_'
'SSL'
'SS7_'
'SOC_'
'SCEP_'
'S0005_'
'S0'
'Robin_'
'Rob_'
'Res'
'Rec'
'RV042_'
'RV'
'RIC_'
'RFQ_'
'RFI_'
'Prospect_'
'Profitable_'
'Perce'
'PAR'
'Nonstop_'
'Mo_'
'Meets_'
'Mayor_'
'Masking_'
'MGF_'
'MEM'
'Ls_'
'Lebanon_'
'Lamp_'
'KM_'
'Ji'
'Ir'
'Importance_'
'IL'
'Handshake_'
'HE_'
'Genesys_'
'GSX_'
'Fans_'
'Enhancement_'
'Ending_'
'Elevator_'
'Edtn_'
'EST'
'Desired_'
'Design'
'DPI_'
'DES'
'Credential_'
'Converting_'
'Conver'
'Combination_'
'Cold_'
'Chan'
'CVDs_'
'CRL_'
'CLOUD_'
'CCDP_'
'C450'
'Bu_'
'Bill'
'Be'
'Asst_'
'Ac'
'APD_'
'AF_'
'88'
'84'
'7300_'
'540_'
'3m_'
'3az_'
'3FE_'
'364'
'24CX_'
'1990s_'
'156'
'1558_'
'131_'
'122'
'100FX_'
'005_'
' . \u_'
' . ) '
' ( ) , _'
' & '
' " ) '
'ww'
'will'
'wallet_'
'visited_'
'via'
'vc'
'trips_'
'trade'
'timeouts_'
'theory_'
'tera'
'submissions_'
'sponsors_'
'specially_'
'somewhere_'
'shielded_'
'satisfies_'
'safeguards_'
'rts_'
'revoke_'
'responders_'
'resistance_'
'residual_'
'replay_'
'rei'
'rans'
'pta'
'programmatic_'
'prints_'
'platelet_'
'ost_'
'optimizations_'
'oldname_'
'nbe'
'nW'
'mit'
'mins_'
'milestone_'
'mes_'
'mat'
'mailing_'
'lan'
'instruct_'
'influx_'
'hotels_'
'hel'
'head'
'hard'
'handoff_'
'gathers_'
'gate_'
'familiarize_'
'facilitated_'
'experiment'
'exe'
'eta'
'ens_'
'encompassing_'
'emergence_'
'educators_'
'dot1q_'
'differentiates_'
'destroy_'
'decrypted_'
'deadline_'
'daughter_'
'cybercriminals_'
'counting_'
'coordinates_'
'contrary_'
'cons'
'conflicting_'
'coffee_'
'captive_'
'beacon_'
'ays_'
'[ ] '
'Yellow_'
'Websense_'
'WWW_'
'WW'
'Universities_'
'UM'
'Telecommunication_'
'Targeting_'
'Tagged_'
'TR'
'TAM_'
'Switchover_'
'Support'
'Speeds_'
'Specialists_'
'Sess_'
'Sensitive_'
'Scan'
'SRND_'
'Recorded_'
'QBR_'
'Pull_'
'Pres'
'Passport_'
'Paris_'
'Packard_'
'PER'
'PB'
'Outstanding_'
'Opt'
'Norway_'
'Mur'
'Mike_'
'Macs_'
'MIS'
'MG'
'MBA_'
'LoB_'
'ITE_'
'INV'
'IG'
'Hewlett_'
'HA'
'Gui'
'GL_'
'Fees_'
'FRU_'
'FIN_'
'Entrepreneurship_'
'Enroll_'
'Energywise_'
'ENT'
'EH'
'DVDs_'
'DPT_'
'DBD_'
'Copying_'
'Considering_'
'Conce'
'Complement'
'Colo'
'Citizen_'
'Capt'
'Calls'
'CONS'
'CONFIDENTIAL_'
'CMA_'
'Bug_'
'BASIC_'
'Architecture'
'Any'
'AnnexB_'
'Ali'
'ASA'
'AISK9_'
'AGC_'
'A1'
'7965G_'
'7936_'
'702'
'630'
'500K_'
'4T'
'4900_'
'4900M_'
'326'
'2W'
'265'
'23dB_'
'1R'
'195'
'1805_'
'1610_'
'1544_'
'148'
'140'
'1310'
'12th_'
'10200_'
' ” – _'
' ” ?_'
' — — _'
' – '
' ] ) '
' , ” “ _'
'x10'
'who'
'usrs_'
'uc'
'trustpoint_'
'trick'
'totally_'
'tica'
'thumb_'
'svc_'
'subjects_'
'subcontract'
'spoofed_'
'short'
'sche'
'sF'
'revolution_'
'reverted_'
'qui'
'pu'
'planet_'
'pk_'
'ourselves_'
'officially_'
'normalization_'
'nn'
'nit'
'nin'
'nds_'
'mountable_'
'min'
'medicine_'
'masquerade_'
'mas'
'liz'
'late'
'ix_'
'isolating_'
'interc'
'intentionally_'
'infinity_'
'independence_'
'imme'
'ila'
'hopping_'
'haul_'
'hap'
'habits_'
'gli'
'fy_'
'fight_'
'essence_'
'ec_'
'distinguished_'
'disciplinary_'
'des'
'declining_'
'custcosw_'
'cus'
'counter'
'correlated_'
'concentrate_'
'compiled_'
'comp'
'committee_'
'cer'
'care'
'c2'
'c11_'
'bt'
'bot'
'bear_'
'backs_'
'articulate_'
'announces_'
'adaptor_'
'adapting_'
'Wide'
'Whereas_'
'Watt_'
'UB'
'Type'
'Transparency_'
'Train'
'Teleworking_'
'TD'
'T568B_'
'Supp'
'Stores_'
'Stea'
'Spr'
'Spam'
'STE'
'SMART_'
'Rise_'
'Rese'
'Relays_'
'Raman_'
'QL'
'Prs_'
'Proper_'
'Prevents_'
'Pressure_'
'PowerVu_'
'PoEP_'
'Pan'
'PST_'
'PSS01'
'PRP_'
'PI_'
'Oriented_'
'Ob'
'OMNI_'
'Not'
'NEXT_'
'Money_'
'Miss'
'Mi'
'Measuring_'
'Mas'
'MN'
'MCID_'
'Liability_'
'LT'
'Jump'
'Invest_'
'Interview_'
'Interoperable_'
'Intercluster_'
'IB'
'HT_'
'Gri'
'Galaxy_'
'Gaining_'
'GENERIC_'
'Fun'
'Fuel_'
'Fs_'
'Flat_'
'Fail'
'FTEs_'
'F2'
'EoR_'
'ESG_'
'EPC_'
'Docs_'
'Depart'
'DV'
'DOC_'
'Cre'
'Corruption_'
'Clar'
'Callers_'
'CallBack_'
'Cabernet_'
'CUCMS_'
'CSS'
'CSG2_'
'COP_'
'Band'
'Autoconfiguration_'
'AutoAnswer_'
'Audits_'
'Art'
'Ant'
'Amsterdam_'
'Alto_'
'Adjacencies_'
'Acc_'
'AS5850_'
'ACT_'
'901_'
'7825H_'
'511_'
'4W_'
'4600_'
'222'
'15302_'
'1260_'
'0001'
'- ] _'
'*_'
' - $ _'
' # ~ _'
'é_'
'x3'
'vision'
'ventilation_'
'ura'
'update'
'unlicensed_'
'unaware_'
'treats_'
'trea'
'trail_'
'traces_'
'tle'
'tional_'
'terabits_'
'technically_'
'tax'
'systemwide_'
'systemsetup_'
'sting_'
'sniffer_'
'service'
'separating_'
'resu'
'replacements_'
'rb'
'ps70'
'ps689'
'ps60'
'projections_'
'progressive_'
'presses_'
'presenters_'
'populates_'
'plasma_'
'pla'
'pinpoint_'
'optin_'
'omitted_'
'obsolescence_'
'objName_'
'netacad_'
'multifunction_'
'mot'
'loud_'
'long'
'lan_'
'kiosks_'
'ka_'
'istic_'
'instrumentation_'
'ign_'
'hn'
'hei'
'gp'
'fr'
'fly_'
'ffe'
'exp'
'eve'
'environmentally_'
'endorse'
'eli'
'eco'
'disputes_'
'dil'
'dge'
'deliverable_'
'cooperate_'
'converges_'
'concise_'
'computed_'
'chas_'
'cast'
'boosting_'
'blink_'
'bills_'
'auditor_'
'assumption_'
'approves_'
'appointments_'
'apparent_'
'aged_'
'advisors_'
'actors_'
'accompanying_'
'] '
'WebSite_'
'WSG_'
'VNMC_'
'VAR_'
'Us'
'Unity'
'Un_'
'USSM_'
'Twisted_'
'Takes_'
'TX9000_'
'Subse'
'Shaping_'
'Set'
'Separation_'
'Seg_'
'SOURCE_'
'SFTP_'
'Rout_'
'Relationships_'
'RMF_'
'PowerShell_'
'Policer_'
'Parking_'
'PN'
'Outsourcing_'
'NTLM_'
'NF'
'Michigan_'
'Met'
'Meeting'
'Medicine_'
'Mediator_'
'Masks_'
'MUX_'
'LoggedOnTime_'
'Languages_'
'LI_'
'IntegrationTM_'
'Ins_'
'ITS_'
'ISN_'
'IPoDWDM_'
'Hy'
'Humidity_'
'Housing_'
'Hold'
'Headers_'
'George_'
'Generating_'
'GS_'
'GST_'
'GPickUp_'
'Funnel_'
'Fra'
'Emails_'
'EVDO_'
'EMEA_'
'EB'
'Downstream_'
'Dispersion_'
'Dgtl_'
'Detector_'
'Dem'
'Daylight_'
'DF'
'D9850_'
'D9054_'
'Contractor_'
'Completing_'
'Clearing_'
'Chair_'
'Candidates_'
'Cam'
'CRD_'
'CCTV_'
'C20_'
'C13_'
'By'
'Bur'
'Australian_'
'Arts_'
'Alarms_'
'Aid_'
'Ahead_'
'Adopt_'
'Accenture_'
'7970G_'
'5M'
'4prt_'
'48P_'
'3545_'
'301_'
'24P'
'12dBm_'
'1080_'
'( ) '
' ⁄ _'
' @ @_'
' ( ? ) _'
' # :_'
'za'
'yer'
'webinar_'
'walking_'
'vm'
'visitor_'
'viewer_'
'v5_'
'userid_'
'uis'
'ue'
'uBR_'
'tt'
'tour_'
'topological_'
'tons_'
'threads_'
'sy_'
'surrogate_'
'suffer_'
'stud'
'splitter_'
'sought_'
'sk'
'simulations_'
'sequencing_'
'sac'
'rou'
'rl_'
'restricting_'
'releasing_'
'reass'
'radi'
'preserves_'
'premier_'
'personality_'
'pan'
'os'
'nv'
'nonp'
'nding_'
'nPlease_'
'multicasts_'
'modal_'
'misuse_'
'mismatches_'
'midplane_'
'mic'
'merchandise_'
'mber'
'laboratory_'
'kHz_'
'ive'
'iva'
'ire_'
'inverse_'
'interim_'
'inspire_'
'influenced_'
'inf'
'ince'
'ida'
'grounded_'
'fra'
'formally_'
'fli'
'firmly_'
'felt_'
'existed_'
'exclamation_'
'erg'
'erc'
'ency_'
'dlci_'
'distributes_'
'detailing_'
'cor'
'conscious_'
'combat_'
'collaborated_'
'chances_'
'catalogs_'
'builder_'
'bottleneck_'
'bars_'
'alpha_'
'ake_'
'ai'
'adjunct_'
'adherence_'
'accommodates_'
'XD_'
'Wednesday_'
'VSR_'
'VF'
'VCI_'
'UserID_'
'Uploading_'
'Tiered_'
'TechWiseTV_'
'TOTAL_'
'TCC_'
'Streams_'
'Stat'
'Sp'
'Somewhat_'
'Shut_'
'Sen'
'Sche'
'Sam'
'STRAT'
'SP1_'
'SOF_'
'Repository_'
'Rep'
'RRM_'
'Qualifying_'
'Professionals_'
'PoS_'
'Pla'
'Personalize_'
'Pers'
'Performs_'
'PROVIDER_'
'PPB_'
'Normalized_'
'NON_'
'Matched_'
'Laser_'
'Isolation_'
'Insufficient_'
'Inco'
'IV'
'ITU3'
'IDF_'
'HQ'
'FlexVPN_'
'Exposure_'
'Entered_'
'Engaging_'
'Emissions_'
'Electronics_'
'Edge2_'
'ESTI_'
'ESP10_'
'ES20_'
'ENC'
'Cut'
'Csc_'
'Core'
'Contractors_'
'Contexts_'
'Consolidating_'
'Confidence_'
'Conditional_'
'Causes_'
'Cascading_'
'Cart_'
'Capitalize_'
'CXO_'
'CSO_'
'CSG2R1_'
'CSG1R7_'
'CLT'
'C6506E_'
'Builds_'
'Broadcom_'
'British_'
'Boo'
'Bndle_'
'Base'
'BT'
'BLE_'
'AutoQoS_'
'AutoOut_'
'Answering_'
'Add'
'Abstraction_'
'A2_'
'9dB_'
'862MHz_'
'7945G_'
'7906G_'
'7835H_'
'750MHz_'
'711'
'6941_'
'6800ia_'
'4HWI_'
'2621XM_'
'2610XM_'
'1a_'
'198_'
'153'
'105'
'1024'
'- $ _'
' ? )_'
' . >_'
'zz'
'xes_'
'ws_'
'worksheet_'
'witch_'
'ven'
'variance_'
'uri'
'unification_'
'underway_'
'ui'
'tz_'
'transporting_'
'summarizing_'
'substations_'
'sse'
'shelves_'
'revA_'
'res'
'repositioned_'
'remedies_'
'rele'
'rat'
'quer'
'poli'
'part'
'paramount_'
'ot'
'oring_'
'ond'
'occasionally_'
'observing_'
'nonstandard_'
'nde'
'ncing_'
'nano'
'multipath_'
'mpe'
'modulus_'
'misconfiguration_'
'meshed_'
'mergers_'
'megabytes_'
'mate_'
'lmi_'
'lea'
'latter_'
'lane_'
'keepalives_'
'ising_'
'ios_'
'invitations_'
'informative_'
'infl'
'inaccurate_'
'imp'
'ies'
'idi'
'hack'
'group'
'gri'
'gr'
'financially_'
'ffi'
'female_'
'exposes_'
'eth_'
'emp'
'ect_'
'discipline_'
'devoted_'
'dated_'
'datacenters_'
'cut'
'count'
'considerably_'
'concert_'
'coexist_'
'clinic_'
'channelized_'
'cascade_'
'attack'
'appearances_'
'ant'
'anomalies_'
'ai_'
'adv'
'aci'
'\\ \\ '
'Zip_'
'WORK'
'WHI'
'Videos_'
'VG20'
'VEM_'
'Useful_'
'Unicom_'
'Uncon'
'UF'
'Transcoding_'
'Thursday_'
'Tasman_'
'T2_'
'Super_'
'Stu'
'Srv_'
'Smartphone_'
'Shutdown_'
'Saturday_'
'SPA9000_'
'Reli'
'Registering_'
'Reachability_'
'Raise_'
'RIC'
'RESE'
'Prts_'
'Players_'
'Pin'
'Penn'
'Para'
'PSDM_'
'PRE3_'
'NTLMSSP_'
'Mea'
'MFP_'
'Logi'
'Lib'
'LN'
'Intensive_'
'Id'
'ITU4'
'INE'
'IMPORTANT_'
'Handled_'
'HM'
'HER'
'Gro'
'Greeting_'
'GigE_'
'FutureOfIT_'
'Forwards_'
'Fine_'
'Exce'
'Exams_'
'Employ'
'Effect_'
'ELL'
'Disks_'
'Decreased_'
'DOMAIN_'
'DNs_'
'DHCPDISCOVER_'
'DEC'
'DCF_'
'Cyber_'
'Chu'
'Character_'
'Cat4'
'CW_'
'CKT_'
'Brightness_'
'Branch'
'BS_'
'Appointment_'
'Am_'
'Adjusted_'
'AUTH_'
'ASAs_'
'ADDRESS_'
'ADAPTER_'
'ACNS_'
'7x'
'512'
'4270_'
'4250_'
'350'
'217'
'203_'
'1m_'
'1T_'
'1D'
'190'
'175_'
'134'
'1234_'
' — ( _'
' } \\ " '
' ] ] '
' , @ '
' * * * * '
'ypt'
'writes_'
'workforces_'
'watche'
'vis'
'unstructured_'
'ually_'
'turnover_'
'trash_'
'trainings_'
'tem'
'supplemental_'
'subscribed_'
'spo'
'sockets_'
'security'
'sIn'
'rver_'
'rma'
'rega'
'ras'
'problematic_'
'pref'
'preemption_'
'pho'
'pc_'
'our'
'organizing_'
'ora_'
'opti'
'oli'
'odi'
'ode'
'nst'
'ndi'
'movie_'
'motivation_'
'monetary_'
'mer'
'md'
'lle'
'liti'
'liabilities_'
'itte'
'invites_'
'intruder_'
'interdependencies_'
'incur_'
'imply_'
'hie'
'hasn_'
'guess'
'groupware_'
'fuels_'
'fs_'
'frees_'
'forgotten_'
'fier'
'feeling_'
'esc'
'ery_'
'enrolling_'
'dust_'
'disappear_'
'dig'
'death_'
'datastore_'
'cro'
'coworker_'
'corrections_'
'conta'
'comple'
'commodity_'
'colla'
'classifies_'
'cke'
'cit'
'channel'
'ccw_'
'cc_'
'cap'
'appeared_'
'alphabet'
'ae_'
'aaS_'
'ZAP_'
'Worksheet_'
'Warranties_'
'Warm_'
'WAP_'
'Volumes_'
'VoiceView_'
'Visio_'
'VG224_'
'UT'
'Thirty_'
'TEL'
'Synchronize_'
'Symmetric_'
'Sus'
'Supplicant_'
'Stability_'
'Ship'
'Sh'
'Sco'
'Rest'
'Removed_'
'Reb'
'Rea'
'Rad'
'RR'
'R1'
'QA_'
'Prioritization_'
'PW'
'PHOENIX_'
'Outline_'
'Optimizes_'
'Optic_'
'OO'
'OFDM_'
'MarketScope_'
'MainOffice_'
'MP2_'
'MCS7845_'
'Longest_'
'Locked_'
'Licens'
'Lar'
'LSC_'
'LLNT_'
'Ken'
'J1_'
'Isilon_'
'Inc'
'ISA'
'Hotspot_'
'Hostnames_'
'Hint_'
'Handle'
'GN_'
'GAIN_'
'FIRST_'
'Expiry_'
'Era_'
'Enough_'
'Email'
'Electricity_'
'EPS_'
'Distribute_'
'Dimmer_'
'Differentiators_'
'Dev'
'DHCPREQUEST_'
'Club_'
'Check'
'Car_'
'Capturing_'
'Called_'
'CL_'
'Arm'
'AppleTalk_'
'Apollo_'
'AS5_'
'AS535_'
'9700_'
'8X'
'740'
'4dBm_'
'3745_'
'32K_'
'301'
'2E1_'
'245_'
'1x2_'
'12810_'
'12410_'
'100Base_'
' ¡ '
' . ) , _'
' ( / _'
'winner_'
'wasn_'
'warrants_'
'victim_'
'undertaking_'
'unchecked_'
'ums_'
'ui_'
'tun'
'tm'
'tighten_'
'throttling_'
'thes'
'stic_'
'stats_'
'sparse_'
'sorry_'
'siteassets_'
'side'
'scr'
'savvy_'
'rotation_'
'roads_'
'risky_'
'rewarded_'
'rental_'
'remind_'
'reinstate'
'rein'
'rare_'
'qualifies_'
'proved_'
'propagates_'
'pricelist_'
'prescribed_'
'ports'
'patented_'
'parsing_'
'overwritten_'
'oti'
'osi'
'oll'
'off'
'oca'
'myriad_'
'multif'
'lin'
'lem'
'judgment_'
'ition'
'iting_'
'irrespective_'
'ire'
'inters'
'interpreter_'
'injection_'
'incredible_'
'illuminated_'
'ight_'
'ient'
'iL'
'horizontally_'
'holders_'
'forefront_'
'ford_'
'emerged_'
'ean'
'dri'
'deriv'
'decouple'
'deactivate_'
'dable_'
'creat'
'cope_'
'compa'
'comfort_'
'collapse_'
'calendars_'
'bun_'
'budgeting_'
'boarded_'
'bit'
'backwards_'
'backslash_'
'autosensing_'
'authenticator_'
'attendee_'
'ater'
'appended_'
'api'
'animated_'
'allocations_'
'adversely_'
'acco'
'XS_'
'Wor'
'William_'
'WANDEST_'
'Vulnerabilities_'
'VO_'
'VMDC_'
'UMTS_'
'Tru'
'Ton'
'TMs_'
'TDR_'
'TAP_'
'T3'
'Strict_'
'Step'
'Shortcut_'
'Seek_'
'SX'
'Remark'
'Rein'
'Reimbursement_'
'Redndnt_'
'Reading_'
'RVS4000_'
'RTT_'
'RPC_'
'RJ45V_'
'RJ'
'RFC'
'REV_'
'Prt_'
'Programmability_'
'Phased_'
'Perpetual_'
'Peers_'
'POLICY_'
'Owned_'
'Outputs_'
'Obs'
'ODOT_'
'Nov'
'Noise_'
'Nic'
'NY_'
'Monitors_'
'Moderate_'
'Mil'
'Mgr'
'Massachusetts_'
'MW'
'MAR'
'Loss'
'LATAM_'
'Intersperse_'
'Instruct'
'Ina'
'Ideally_'
'ITY_'
'IMP'
'HE'
'Good'
'Forms_'
'Fore'
'Ford_'
'Facility_'
'FIB_'
'FFFF_'
'FB_'
'Exterior_'
'Exec_'
'Edit'
'EUR_'
'EGP_'
'Dist'
'Diffie_'
'Del'
'DVS_'
'DHCPOFFER_'
'Cyber'
'Cplr_'
'Configuration'
'Comput'
'Circuits_'
'Ce'
'Cast_'
'CallRouter_'
'CRE_'
'CONTROL_'
'CE520_'
'Byte_'
'Bonus_'
'Blind_'
'Bi_'
'Bangalore_'
'BTU_'
'BER_'
'AutoDART_'
'Authenticate_'
'Ans'
'Act'
'ASA5550_'
'8710_'
'6dB_'
'4c_'
'2B_'
'2691_'
'2611XM_'
'16c_'
'158'
'1570_'
'1310HDFwdTx_'
'12V_'
'0G_'
''_'
' | ._'
' ] ' '
' ? ” '
' : < > _'
'~ '
'yl'
'worlds_'
'whitepaper_'
'water'
'warrant_'
'vert'
'unk'
'ubiquity_'
'ual'
'tutorials_'
'ture_'
'trailing_'
'swi'
'subscribing_'
'sq_'
'spin'
'soft'
'snmp_'
'slo'
'sing'
'silo_'
'sea_'
'sal'
'sE'
'rk'
'researching_'
'remark_'
'rame_'
'ram'
'qout_'
'ps83'
'priv'
'pra'
'passenger_'
'ordina'
'noncorporate_'
'nLight_'
'nIf_'
'multilink_'
'mismatched_'
'message'
'lo_'
'lifecycles_'
'irre'
'imaging_'
'hyperlinks_'
'housed_'
'harm_'
'ged_'
'gan'
'g0_'
'frameworks_'
'fic'
'fare_'
'explores_'
'experimental_'
'ether'
'equip_'
'equip'
'eq_'
'entitlements_'
'ech'
'dozens_'
'doc'
'depreciation_'
'cru'
'crime_'
'cornerstone_'
'cin'
'bon'
'blacklist'
'bing_'
'ben'
'bas'
'ba_'
'auth'
'augment'
'ators_'
'ardi'
'ak'
'aggressively_'
'[ [ _'
'Yeah_'
'Wiki_'
'West'
'Webinar_'
'Wea'
'WIN'
'VSA'
'UUID_'
'UG'
'Transitioning_'
'Transferring_'
'Transcoder_'
'Tr'
'Thresholds_'
'The'
'Tekes_'
'Synergy_'
'Swtch_'
'Stats_'
'Spend_'
'Spe'
'South'
'Softphone_'
'Simultaneous_'
'Simul'
'Sig'
'Shenzhen_'
'Sage_'
'SLOT_'
'SERIES_'
'SCO'
'SCC_'
'S7'
'Ringing_'
'REN'
'REM'
'PuTTY_'
'Principal_'
'Positions_'
'Popular_'
'PRE4_'
'OPickUp_'
'Means_'
'Mass_'
'MOD'
'MAX_'
'Locally_'
'Late_'
'LS_'
'Jack_'
'JTAPI_'
'Intermediary_'
'Injection_'
'Happ'
'Graphics_'
'GIS_'
'G3_'
'Forces_'
'Findings_'
'Facts_'
'FOR'
'Eric_'
'Ent'
'ENTER_'
'EBGP_'
'Don'
'Directional_'
'Deloitte_'
'DVI_'
'DRM_'
'DCA_'
'D9032_'
'Cu'
'Collect'
'Client'
'Classes_'
'Choices_'
'Cause_'
'Cap_'
'CNR_'
'CASE_'
'C29'
'BRA'
'Accountable_'
'Accessibility_'
'APS_'
'8X5X4OS_'
'791'
'6504_'
'568_'
'4503_'
'4500X_'
'4200_'
'3548_'
'3500'
'32GB_'
'2pt_'
'26'
'253_'
'24U_'
'1990_'
'190_'
'1524_'
'121'
' , $ _'
' ) . \\ _'
' % ) , _'
'“ ... _'
'é'
'wild_'
'ware'
'walks_'
'vie'
'va_'
'upgradeable_'
'unrestricted_'
'uct'
'transponder_'
'tial_'
'text'
'sp'
'solicitation_'
'signages_'
'shuts_'
'shield_'
'scrolling_'
'sci'
'sca'
'salesforce_'
's1_'
'rte'
'rol'
'rio'
'rg'
'rejects_'
'rebuild_'
'rant'
'ranks_'
'rable_'
'que'
'ps2827_'
'prox'
'precautions_'
'possession_'
'pon'
'ote'
'ost'
'ose'
'orchestrate_'
'ope'
'ong_'
'ok_'
'oce'
'observations_'
'nor'
'nne'
'manuals_'
'magnetic_'
'luxury_'
'lus'
'loyal_'
'lla'
'lecture_'
'iona'
'invisible_'
'instability_'
'ink'
'indefinitely_'
'incurring_'
'ifcXML_'
'gm'
'fallback_'
'exploration_'
'ene'
'eD'
'dro'
'dir_'
'df'
'det'
'defer_'
'dece'
'cul'
'correspondence_'
'continual_'
'concentration_'
'computation_'
'colour_'
'classifications_'
'cla'
'chipset_'
'cease_'
'carte_'
'bypassing_'
'bounded_'
'bound'
'botnets_'
'ber_'
'balances_'
'arti'
'arc'
'approving_'
'anycast_'
'anchor'
'ale'
'af'
'advent_'
'adopters_'
'adj'
'Validating_'
'VNE_'
'VCCI_'
'Une'
'USM_'
'Tracks_'
'Tar'
'TRI'
'Synchronize'
'Sx_'
'Spec'
'Sophisticated_'
'Shi'
'Share'
'Sept_'
'Secure'
'Say_'
'SYSLOG_'
'SRW20'
'SPO'
'SIP'
'SEL'
'Rings_'
'Richardson_'
'Richard_'
'Resolving_'
'References_'
'Reconnect_'
'Receives_'
'RTSP_'
'Powering_'
'Plugin_'
'Panduit_'
'PU'
'PSS00'
'PIDs_'
'PGW2200_'
'PAN_'
'P81E_'
'Os_'
'OCSP_'
'OA'
'Mouse_'
'Motor'
'Ment'
'Measured_'
'MEM_'
'MCS7825_'
'Laboratory_'
'LSU_'
'Interconnecting_'
'Informa'
'ISI'
'Hubs_'
'Hiring_'
'Hellman_'
'Hel'
'Hear'
'Hash_'
'HDDs_'
'HAR'
'Grant_'
'Graduate_'
'Gil'
'Generat'
'GCT_'
'Fusion_'
'Fl'
'Finalize_'
'FRA'
'FO'
'Eventually_'
'Elective_'
'Deb'
'Cro'
'Contact'
'Conduct'
'Cho'
'Cat4507R_'
'CLI'
'CIT'
'CAL'
'C5'
'C0'
'Bul'
'Booster_'
'Boards_'
'Bet'
'Backplane_'
'Author_'
'Attention_'
'AnyConnectTM_'
'Annu'
'Ala'
'AXIS_'
'ACCEPT_'
'810_'
'7971G_'
'7845H_'
'614'
'500GB_'
'4HWICs_'
'4Gb_'
'48VDC_'
'4300_'
'3R'
'3G'
'310'
'2XOC_'
'280_'
'2048_'
'1c_'
'1Yr_'
'1552'
'1542_'
'12416_'
'122_'
'113_'
'..._'
' \\ " \\ "_'
' \\ " \\ " ._'
' : , _'
' ) ) '
' ( + ) _'
'● '
'“ '
'xt'
'wonder'
'wear'
'wb'
'vS'
'vD'
'unp'
'unde'
'uit'
'trustworthiness_'
'transformations_'
'tough_'
'tel_'
'tech'
'tation_'
'studying_'
'snapshots_'
'shutting_'
'shots_'
'shock_'
'sentences_'
'scarce_'
'sU'
'rus'
'reta'
'reso'
'resi'
'repaired_'
'refreshing_'
'ran_'
'ran'
'ps113'
'possess_'
'pointed_'
'point'
'pen'
'passphrase_'
'passengers_'
'overc'
'orma'
'ole'
'old'
'oh'
'occ'
'nonsecure_'
'networkwide_'
'mirrored_'
'merging_'
'mega'
'lock'
'listenerconfig_'
'lend'
'labeling_'
'ject'
'imports_'
'hrs_'
'gla'
'fun_'
'foot'
'flush_'
'film_'
'fication_'
'eted_'
'equi'
'enn'
'efficacy_'
'ear'
'downs_'
'deco'
'dC'
'curity_'
'contracted_'
'clocks_'
'clarify_'
'ciscorewards_'
'categorize_'
'cale'
'bwt_'
'bn'
'belief_'
'bachelor_'
'awa'
'ascending_'
'approximate_'
'appeal_'
'adi'
'Ze'
'X67'
'Wr'
'WRS2_'
'WEB'
'Uptime_'
'Upgradable_'
'Transfers_'
'Thermal_'
'Temporal_'
'Tax'
'TW'
'TEXT'
'Suspect_'
'Suppl'
'Stn'
'Stick_'
'Sti'
'Stereo_'
'Special'
'Spares_'
'Signals_'
'Showing_'
'Shopping_'
'Senders_'
'Scripts_'
'Saudi_'
'SG300_'
'SCH'
'SAS'
'SAM_'
'S32_'
'Ringer_'
'Researching_'
'Renewable_'
'Ren'
'Rand'
'RTR_'
'RCPT_'
'Python_'
'Putting_'
'Pure_'
'Prices_'
'Pop_'
'Police_'
'PVU_'
'PIX5'
'PAMs_'
'Owners_'
'Org_'
'Op_'
'Obtaining_'
'NL_'
'NITA_'
'Mut'
'Mol'
'Micros'
'Message'
'Mat'
'Manufacturers_'
'Magazine_'
'MX300_'
'MX'
'MO_'
'Leased_'
'LRE_'
'LLNTR_'
'Jon_'
'Johnson_'
'Ins'
'Inquiries_'
'Indian_'
'Implications_'
'INTER'
'IBLM_'
'IAD'
'Hexadecimal_'
'HIGH_'
'H323_'
'GRE'
'Fused_'
'Finnish_'
'Fed'
'FU'
'Ethernet1_'
'Err_'
'Empowered_'
'El'
'Earlier_'
'ESP'
'ERT'
'EN55022_'
'EL_'
'Distinguished_'
'Dense_'
'Deli'
'Dec'
'Debugging_'
'DMx_'
'Confi'
'Commonly_'
'Collateral_'
'Checksum_'
'CCIP_'
'CALLMGR_'
'C19_'
'Bru'
'Bootstrap_'
'BladeSystem_'
'Bidirectional_'
'Anal'
'Aggressive_'
'Advisors_'
'Adv'
'ATI'
'APPL'
'ACE'
'A0'
'9508_'
'7800_'
'64000_'
'4X'
'4T_'
'4RF_'
'4800_'
'4094_'
'3D'
'2X1'
'2T1_'
'2Q'
'2M'
'2960PD_'
'260'
'204'
'198'
'181'
'133_'
'114'
'10GB_'
'0E'
'048_'
'00000000_'
'' ) '
' ? ​_'
' ( # _'
' $ $ '
' " > _'
'you'
'yesterday_'
'yT'
'wireline_'
'watt_'
'warehousing_'
'viewers_'
'variant_'
'vCloud_'
'unre'
'unc'
'unassigned_'
'ula'
'trains_'
'tool'
'times'
'thread_'
'thereafter_'
'telework_'
't1_'
'supposed_'
'supplementary_'
'successes_'
'subtract_'
'stock'
'stem'
'space'
'sion'
'sep'
'season'
'screwdriver_'
'sam'
'safer_'
'rom'
'ris'
'rigid_'
'rfc'
'rethink_'
'repurposed_'
'ref'
'ree_'
'radius_'
'quadruple_'
'pulse_'
'ps65'
'ps29'
'prominent_'
'prioritizing_'
'precisely_'
'poses_'
'populating_'
'phi'
'personali'
'partitioned_'
'outs'
'ous'
'obs'
'objValue_'
'nthe_'
'nom'
'nel'
'nD'
'mode'
'menting_'
'mate'
'mag'
'less'
'lee'
'k9_'
'itu'
'iso'
'ips'
'inflexible_'
'infections_'
'hro'
'hides_'
'has'
'gue_'
'gray_'
'gest'
'gas'
'fingerprint_'
'fetched_'
'feed'
'esent'
'erat'
'entail'
'enta'
'enrollments_'
'enc'
'elle'
'dns_'
'dly_'
'din'
'dictates_'
'decode_'
'debit_'
'cooled_'
'conveniently_'
'compli'
'complain'
'checkmark_'
'cd'
'bi_'
'behavioral_'
'authored_'
'ano'
'analogy_'
'amplifier_'
'amen'
'ail_'
'advisories_'
'adviser_'
'additionally_'
'adaptation_'
'accompany_'
'abbreviation_'
'aaa'
'aS_'
'\u '
'[ : _'
'Zoom_'
'XI'
'X3650_'
'Whitepaper_'
'Wave'
'Vol'
'Vehicle_'
'Variables_'
'VVI_'
'VAM_'
'Utilizing_'
'Urgent_'
'Upgrade'
'Unreachable_'
'Twenty_'
'Tutorial_'
'Timers_'
'Themes_'
'TXT_'
'TIME_'
'Solutions'
'Sn'
'Serv'
'Series'
'Selects_'
'SVO_'
'SRV1_'
'SIS_'
'SCU_'
'SCE_'
'Runtime_'
'Replaced_'
'Repl'
'Regions_'
'RFC2'
'Q4'
'Purge_'
'Physically_'
'ORI'
'OP_'
'NCE_'
'NAC3350_'
'N2'
'Mx_'
'Modularity_'
'Mitel_'
'Mini'
'Mb'
'MCS7815_'
'Located_'
'Localized_'
'JB'
'Isolate_'
'Inventions_'
'Inform_'
'Increment_'
'Implemented_'
'IRC_'
'IPV6_'
'IDH_'
'IDE'
'Handoff_'
'Goods_'
'Free'
'Forums_'
'Formats_'
'Font_'
'Flo'
'Finder_'
'FindIT_'
'FM_'
'Expect_'
'Eos_'
'ESCON_'
'ECAL_'
'Down'
'Disadvantages_'
'Difference_'
'Deck_'
'DSSS_'
'DS0s_'
'Correspond'
'Converted_'
'Continuing_'
'Conflict_'
'Conf'
'Concentrator_'
'Comma_'
'Classify_'
'Cisco3745_'
'CWNCM_'
'CTA_'
'CMM_'
'CFP_'
'CCSI_'
'C2924'
'Bold'
'BoM_'
'Blueprint_'
'Blogs_'
'Bea'
'Bas'
'Awards_'
'Alpha'
'Allocate_'
'Album_'
'Af'
'Adj'
'AWG_'
'AUS_'
'ATT_'
'AIM'
'327'
'3000'
'2960G_'
'266'
'255'
'1pt_'
'1DSU_'
'15327_'
'1400W_'
'0M'
'00000'
' ®_'
' ] ) ._'
' \\ ' _'
' . *_'
' ( > '
' ( . ) '
'{ { _'
'vable_'
'useable_'
'urgency_'
'underutilized_'
'uncon'
'umbrella_'
'tr'
'tat'
'tapes_'
'tap'
'subtract'
'subsystems_'
'stall'
'stakeholder_'
'sr'
'sponsorship_'
'sor'
'shortage_'
'scripted_'
'screenshot_'
'ring'
'richness_'
'rework_'
'ren'
'redundan'
'rate'
'qiao_'
'ps10265_'
'productively_'
'predicts_'
'postings_'
'populations_'
'poisoning_'
'pillar_'
'overseas_'
'overridden_'
'overarching_'
'ooks_'
'np'
'nontra'
'nk_'
'naturally_'
'narrow'
'nT'
'mor'
'meals_'
'mainframe_'
'luc'
'list'
'link'
'kilobits_'
'kickoff_'
'ker'
'jurisdictions_'
'iv_'
'itude_'
'investigating_'
'intern'
'intention_'
'inner_'
'injected_'
'info'
'increment_'
'impose_'
'iew'
'ietf_'
'ically_'
'iSeries_'
'hyphens_'
'humans_'
'hopes_'
'highway_'
'hashing_'
'guiding_'
'gre'
'ger'
'factories_'
'eni'
'economically_'
'doubled_'
'destruction_'
'destroyed_'
'dB'
'cwdm_'
'cspan_'
'constraint_'
'compil'
'companion_'
'coalition_'
'cm'
'cloud'
'cking_'
'cia'
'chas'
'chair_'
'cco'
'broaden_'
'bonding_'
'bolt_'
'bitrate_'
'bindings_'
'believed_'
'avi'
'ata'
'ase_'
'ample_'
'alt_'
'allotted_'
'acronym_'
'XPonder_'
'XP'
'XM'
'Wireless'
'Wh'
'Websites_'
'Wallet_'
'Walk_'
'WLSE_'
'WH'
'WB'
'Violation_'
'UDLD_'
'Trending_'
'Traversal_'
'Transformational_'
'Trans'
'Touch'
'Tool'
'Text'
'Testimonials_'
'Tan'
'Sup2U_'
'Stub_'
'Streamer_'
'Std'
'Stages_'
'Speakers_'
'Solving_'
'Snap'
'Silent_'
'Shipped_'
'Shen'
'Shar'
'Sand'
'SPE_'
'SOX_'
'SMSx_'
'SIM'
'SAM'
'Rt'
'Routes'
'RoHS_'
'Remote'
'Redund_'
'RecoverPoint_'
'RV016_'
'RSPAN_'
'RNSDs_'
'QPSK_'
'Promoting_'
'Predictable_'
'Pen'
'Payroll_'
'PBG64_'
'Opened_'
'OpenFlow_'
'OID_'
'Num'
'Note'
'NC_'
'Moore_'
'Migrat'
'Menu'
'Massive_'
'Macintosh_'
'MP3_'
'MHZ_'
'MF'
'MC5'
'MAPI_'
'MAINT_'
'Light'
'Licensed_'
'LAP1'
'Jin'
'Jer'
'JP'
'JAX_'
'Iv'
'Inconsistent_'
'Ideas_'
'IV_'
'ISL_'
'HostA_'
'Hal'
'Gtwy_'
'Golden_'
'Fortunately_'
'Filename_'
'Feb_'
'ExpressPod_'
'Encapsulated_'
'Emer'
'Edge'
'Doc'
'DG_'
'DFC3'
'DAT'
'D94'
'Consume'
'Con_'
'Competing_'
'Checks_'
'Ceiling_'
'CUCMBE_'
'CUC'
'CTMS_'
'CREAT'
'COMM'
'CIN_'
'CHC_'
'CAMs_'
'Brochure_'
'Brocade_'
'Audi'
'Attract_'
'Assy_'
'Aspect_'
'Amb'
'Adapt'
'AWS_'
'ASR14000_'
'9124_'
'710_'
'6P'
'650W_'
'601_'
'5E_'
'3660_'
'328_'
'320'
'2AC_'
'277'
'223_'
'221'
'220V_'
'20dB_'
'1PS_'
'1991_'
'169_'
'15TX'
'1546_'
'15310E_'
'149_'
'112'
'10Gigabit_'
'09186a0080'
'008_'
' } )_'
' < > '
' : ' '
' , ‘ _'
' , / _'
' ) ” _'
'▽ _'
'■ _'
'– '
'yw'
'xt_'
'widgets_'
'wel'
'webinars_'
'voucher_'
'unmute_'
'unm'
'uncertain_'
'unauthenticated_'
'tm_'
'threaten'
'thick_'
'tern'
'tch_'
'taxation_'
'tC'
'succeeds_'
'substitution_'
'str'
'steering_'
'shrinking_'
'serviceable_'
'scanners_'
'roc'
'retr'
'repeaters_'
'reo'
'reimbursed_'
'recommending_'
'pvc_'
'ps104'
'ppo'
'pped_'
'poison_'
'perf'
'pec'
'partic'
'parent'
'outperform'
'outlining_'
'ork'
'observation_'
'nre'
'nets_'
'nan'
'myc'
'mut'
'multiyear_'
'multiplier_'
'mixing_'
'men'
'media'
'mble'
'massively_'
'luster_'
'lth'
'lect'
'kick_'
'intrusions_'
'instrument_'
'inspected_'
'iner'
'ille'
'hot'
'home'
'hibernation_'
'hen'
'hamper'
'governs_'
'gard'
'flow'
'fid'
'fake_'
'ell_'
'ecosystems_'
'earliest_'
'eC'
'disti_'
'differing_'
'deter'
'delegation_'
'dee'
'cted_'
'crossed_'
'cross'
'cre'
'computerized_'
'circuitry_'
'cil'
'caption'
'cancer_'
'borrowing_'
'blocker_'
'automotive_'
'ari'
'altsrchost_'
'advancement_'
'acknowledgments_'
'abide_'
'Whi'
'Weaknesses_'
'WB_'
'Veri'
'VIM_'
'VALUE_'
'UNI_'
'Trip_'
'Toolbar_'
'Tones_'
'Telemarketing_'
'Tabs_'
'TX'
'Symbian_'
'Sure_'
'Start'
'Stan'
'Square_'
'Sno'
'SNMPv2_'
'SHEL'
'Route'
'Rolling_'
'Reversion_'
'Reported_'
'Removal_'
'Remind_'
'Reform_'
'RIM_'
'REQUEST_'
'Pts_'
'Provisioned_'
'Prom'
'Presentations_'
'Preamble_'
'Planner_'
'Perptl_'
'Par'
'PVRST_'
'PRISMA_'
'PON'
'PACK_'
'Origin_'
'OC48c_'
'North'
'NaviSite_'
'Mitigating_'
'Mirroring_'
'Maximize'
'Maturity_'
'Mappings_'
'Maintains_'
'MSC'
'MGB'
'MACSec_'
'Little_'
'Linked_'
'Leg'
'Lay'
'Largest_'
'Lane_'
'LW'
'LF_'
'Kat'
'K1_'
'Ireland_'
'Investing_'
'Immediately_'
'Identifiers_'
'IPP'
'IPCP_'
'Holding_'
'Her_'
'Governments_'
'Giving_'
'GUID'
'Fro'
'Foot'
'FET_'
'Equ'
'EoMPLS_'
'Enters_'
'Enrollments_'
'EDI'
'Dvc_'
'Dispute_'
'Differences_'
'Det'
'Decoder_'
'DEFAULT_'
'Customer'
'Cru'
'Contextual_'
'Concierge_'
'Competitiveness_'
'Compar'
'Collaboration'
'Coa'
'Christi'
'CISPR22_'
'CIF_'
'CENTRAL_'
'CCN'
'C3560E_'
'Brings_'
'Boundary_'
'Bor'
'Bind_'
'Badge_'
'BOMs_'
'Awa'
'Auxiliary_'
'Attackers_'
'Attacker_'
'Application'
'Allocated_'
'Aba'
'AQ_'
'AQM_'
'ADV'
'9222i_'
'8C'
'860VAE_'
'831_'
'7609S_'
'6G'
'6961_'
'6120XP_'
'527_'
'513_'
'50M'
'4p'
'4M'
'492'
'48TS_'
'421'
'40GE_'
'2X10GE_'
'211'
'1F'
'176_'
'1550'
'12D_'
'1152_'
'10B'
'100000'
'010'
'. )_'
' ] ) , _'
' . ; _'
' . * * * _'
' ( % ( _'
'­ '
'xing_'
'x64_'
'voltages_'
'vir'
'ville_'
'univ'
'underneath_'
'undebug_'
'ught'
'tracing_'
'tically_'
'throw'
'tent'
'tail_'
'system'
'symptom_'
'suboptimal_'
'structural_'
'strongest_'
'stag'
'sorting_'
'severely_'
'sequentially_'
'sem'
'seal'
'saline_'
'round'
'rig'
'reverts_'
'requ'
'repetitive_'
'remember'
'recover'
'reco'
'reassign_'
'ps6'
'prospecting_'
'progressi'
'precision_'
'poly'
'polices_'
'pn'
'phrases_'
'pers'
'overlays_'
'ovens_'
'ork_'
'ora'
'ona'
'occupy_'
'ntr'
'nto_'
'nn_'
'ninety_'
'nF'
'men_'
'memo_'
'megabits_'
'manifest_'
'looping_'
'log'
'load'
'leap_'
'lc'
'lat'
'inherited_'
'influences_'
'indications_'
'idate'
'ice_'
'iPod_'
'hacking_'
'graduates_'
'fostering_'
'fo_'
'favorable_'
'eter_'
'ese_'
'escalations_'
'encode_'
'elasticity_'
'ears'
'dw'
'downgrade_'
'dise'
'dimensional_'
'denoted_'
'decentralized_'
'cy'
'cri'
'conn_'
'condensing_'
'complying_'
'complaints_'
'comm'
'cli'
'civil_'
'chron'
'cha'
'cess'
'c1'
'bursts_'
'brute_'
'break'
'bad'
'attracting_'
'attenuation_'
'atten'
'appli'
'amended_'
'altogether_'
'advancing_'
'administering_'
'accompanied_'
'academies_'
'XR'
'XE'
'Writing_'
'Wri'
'Wholesale_'
'WWPN_'
'WD'
'Vis_'
'Verdict_'
'Validates_'
'Upcoming_'
'Ts_'
'Tom'
'Tier'
'TeraTerm_'
'Tal'
'TL'
'Sum_'
'Suites_'
'Source'
'SolarWinds_'
'Sie'
'Side'
'Serving_'
'Seek'
'Schedules_'
'Sav'
'SVIs_'
'SANS_'
'Resize_'
'Reporter_'
'Renewing_'
'Read'
'RV180_'
'RPS2300_'
'R15_'
'Puts_'
'Program'
'Posts_'
'Pier'
'Paging_'
'PUT_'
'PKI_'
'PK'
'P3_'
'Ol'
'OTHER_'
'OSE_'
'OH'
'OECD_'
'Nor'
'Night_'
'Newer_'
'Momentum_'
'Mis'
'Mino'
'Mind_'
'MSFT_'
'MSD'
'MN_'
'Lyn'
'Lunch_'
'Longer_'
'Lift_'
'Least_'
'Layer2_'
'LG'
'LAP'
'JI'
'Invention_'
'Intgd_'
'Inclusive_'
'ITC_'
'IPM'
'IPI'
'Hen'
'Gains_'
'Formal_'
'Flood_'
'Firms_'
'Feeds_'
'FMEC_'
'FLASR1_'
'Expires_'
'Excludes_'
'Establishment_'
'Ed'
'EXC'
'EURO_'
'EMR_'
'EDU'
'Dropped_'
'Dist_'
'Direction_'
'Dictionaries_'
'Des'
'Demands_'
'DFR_'
'DDNS_'
'Curr'
'Cry'
'Collisions_'
'Clinical_'
'Cleaning_'
'Cla'
'Cisco831_'
'Char'
'Centr'
'CWDM1550_'
'CH1'
'CATALYST_'
'CAN'
'Bundled_'
'Belgium_'
'Bal'
'Backing_'
'BDMs_'
'Ave'
'Autom'
'Authorizations_'
'Appl'
'Affected_'
'Abandoned_'
'ASE'
'ACL'
'9513_'
'931'
'8831_'
'7962G_'
'6RU_'
'600M_'
'5Ghz_'
'5G'
'530_'
'4x10GE_'
'4E_'
'480'
'3u_'
'3S'
'3750'
'2M_'
'2Gbps_'
'2955_'
'20M'
'207_'
'1993_'
'1588_'
'110'
'10k_'
'0S'
'0P_'
' \\ , \\ _'
' @ @ ._'
' * :_'
' ) )_'
' ( \\ " '
' " ) ._'
'yuan_'
'yA'
'xS'
'whitespace_'
'wer'
'vmware_'
'view'
'unfa'
'uence'
'travelling_'
'tracer_'
'til'
'tely_'
'tc'
'talks_'
'sweep'
'strengthening_'
'statuses_'
'sporting_'
'spends_'
'social'
'smtp_'
'slowest_'
'skipped_'
'shade'
'sett'
'sen_'
'select'
'securities_'
'screenshots_'
'scoring_'
'sCisco_'
'ron_'
'rm_'
'rewarding_'
'rent'
'referral'
'reenter_'
'questioning_'
'ps7'
'propositions_'
'proofing_'
'prizes_'
'prec'
'pound_'
'picking_'
'omni_'
'offen'
'nstr'
'nonvolatile_'
'nonprofit_'
'nity_'
'newsletters_'
'neg'
'nci'
'nal'
'mux_'
'moni'
'mind'
'magazine_'
'lp'
'ln'
'literally_'
'lightning_'
'lf_'
'latencies_'
'lar'
'landslide_'
'ket'
'kWh_'
'joystick_'
'itr'
'interception_'
'insensitive_'
'impl'
'iff'
'honest_'
'historically_'
'hires_'
'gb'
'furnish'
'fu'
'exhaust_'
'ero'
'ens'
'enrich_'
'ement'
'eme'
'electro'
'dge_'
'dev'
'denotes_'
'den_'
'customer'
'criterion_'
'cpu_'
'correcting_'
'comprising_'
'common'
'commen'
'brochure_'
'bra'
'awaiting_'
'ave'
'asse'
'apo'
'anne'
'accelerator_'
'abstracted_'
'Yu'
'X1'
'Words_'
'Waste_'
'Unt'
'UCCX'
'TwinGig_'
'Tre'
'Transmitted_'
'Translations_'
'Touchtone_'
'Tactical_'
'TYPE_'
'Sr_'
'Spreadsheet_'
'Spa'
'ShoreTel_'
'Shan'
'Seri'
'Rou'
'Rom'
'Rig'
'Revert_'
'Remedy_'
'Redirection_'
'Recorder_'
'Really_'
'Radi'
'RTC_'
'ROUTER_'
'RH_'
'R6_'
'Qty1_'
'PortGroup_'
'Pitch_'
'Partners'
'PVD_'
'PUR'
'PPDIOO_'
'PISA_'
'PDK58_'
'PAGE_'
'OPEN_'
'OAM_'
'Near_'
'Nation'
'Nat'
'NSSA_'
'NGI_'
'Moderator_'
'Median_'
'Matt'
'MTM_'
'MGR_'
'Laptops_'
'KA'
'JU'
'Ite'
'Integrations_'
'Infrastructures_'
'Infonetics_'
'Income_'
'IX'
'ISP'
'IOA_'
'INA'
'Historically_'
'HOW_'
'HFC_'
'GSTS_'
'GALAXY_'
'Futurist_'
'Friendly_'
'Founded_'
'Femtocell_'
'Fall'
'FLA'
'Expl'
'Experience'
'Engine'
'ERI_'
'EQ_'
'ENET_'
'Drawing_'
'Differential_'
'Diagnos'
'Developers_'
'Delayed_'
'Dashboards_'
'DRS_'
'DOM_'
'DISTRIBUT'
'DIRECT'
'DEMAND_'
'D947'
'D90'
'Cumulative_'
'Cores_'
'Chnl_'
'Center'
'Carton_'
'Cabinet_'
'COO_'
'CDC_'
'CCSP_'
'C45_'
'Brackets_'
'Basic'
'Barcelona_'
'BITS_'
'Async_'
'Approvers_'
'Applianc_'
'Alex_'
'Alb'
'AX'
'ASS'
'ASE_'
'AIS_'
'AGC'
'A3_'
'9100_'
'8850_'
'7960_'
'680'
'5584088'
'4X1'
'4000'
'3600'
'351'
'310_'
'306'
'3020_'
'2V'
'2R_'
'25K_'
'24V'
'191_'
'16A_'
'133'
'12dB_'
'12006_'
'- ( _'
' — '
' { '
' ? ._'
' ) ) _'
' ' ) '
'· _'
'xDSL_'
'x4_'
'wholly_'
'weekend_'
'vote'
'vat'
'utt'
'tur'
'trust'
'trunked_'
'tric'
'trajectory_'
'ting'
'termin'
'tel'
'td_'
'tal'
'sv'
'snap_'
'sli'
'ski'
'signifies_'
'shaped_'
'sentence_'
'seize_'
'see'
'sdp_'
'scroll'
'scen'
'rot'
'rop'
'rne'
'revoked_'
'responder_'
'repositories_'
'rendering_'
'rel'
'reinsert'
'regenerate'
'reflection_'
'redirecting_'
'rebooting_'
'r1'
'pulls_'
'province_'
'protections_'
'printable_'
'pooling_'
'photograph'
'pes_'
'perpetual_'
'parentheses_'
'ovi'
'outdial_'
'originator_'
'omin'
'oa'
'nqu'
'nonpro'
'multiplexed_'
'multinode_'
'mother_'
'mmer'
'meanings_'
'masking_'
'lv'
'lu_'
'lt'
'lla_'
'law'
'item'
'inten'
'init'
'impromptu_'
'ima'
'ier'
'iTunes_'
'iLYNX_'
'historic_'
'hazard_'
'gigabits_'
'fragments_'
'finite_'
'evident_'
'equates_'
'entrusted_'
'embark'
'elects_'
'dn'
'divert'
'dest'
'dA'
'cts_'
'cooperative_'
'communi'
'committees_'
'clears_'
'cipher_'
'chipsets_'
'change'
'cce'
'cancel'
'bundling_'
'br_'
'boss_'
'bookmark'
'ath'
'annuity_'
'ange'
'amo'
'alize_'
'ality_'
'aka_'
'airline_'
'ail'
'affordability_'
'adverse_'
'acute_'
'accommodation_'
'ab_'
'XenApp_'
'XaaS_'
'WT'
'WFM_'
'WAC_'
'VSA_'
'VPN3030_'
'VDCs_'
'UA_'
'Txp_'
'Tidal_'
'Terminate_'
'Tam'
'TB'
'Stations_'
'Spyware_'
'Sourcing_'
'Segment'
'SU_'
'SUS'
'STBs_'
'SPA400_'
'Rich'
'Revised_'
'Revenues_'
'Retrieving_'
'Report'
'Repeatable_'
'Reach'
'RV180W_'
'RTS_'
'RIR'
'REMOTE_'
'Q2'
'Propagating_'
'Ports'
'Ple'
'Ph'
'PLA'
'PART_'
'Outp'
'Outcome_'
'Operation'
'Obligations_'
'Oak'
'OUT'
'ORT_'
'OIR_'
'Neutral_'
'NPE'
'Mu'
'Mono'
'Management'
'MX200_'
'MTTR_'
'MI_'
'Lou'
'Lobby_'
'Loan_'
'Live'
'Legend_'
'Launches_'
'KTS_'
'JabberTM_'
'Invest'
'Intro'
'Intervals_'
'Internet'
'Institution_'
'Inst_'
'Insertion_'
'Inform'
'ITEMP_'
'ISC3_'
'IDE_'
'Honeywell_'
'HOSTS_'
'Geographic_'
'Gatekeeper_'
'Florida_'
'First'
'FY0'
'FRR_'
'FPST_'
'Exit'
'Exe'
'Ethernet'
'Establishes_'
'Eras'
'Dramatically_'
'Discussions_'
'Discount'
'Discard'
'Decommission_'
'Dark'
'DSX_'
'DEFENDER_'
'D1'
'Coun'
'Corrupt_'
'Cont'
'Combiner_'
'Cognitive_'
'Cl'
'CRDC_'
'CLOSE_'
'CISCO2811_'
'CISCO28'
'CHAS'
'CCVP_'
'CAR'
'C8510_'
'C260_'
'C10_'
'Brook'
'Besides_'
'Asymmetric_'
'Assistants_'
'Assessing_'
'Appr'
'Ap'
'Alternately_'
'Aligned_'
'Ai'
'AR2_'
'APPROVER_'
'8VSB_'
'8K_'
'890_'
'796'
'7942G_'
'790'
'703_'
'6x'
'6911_'
'6901_'
'5x_'
'5A_'
'5596UP_'
'501'
'499_'
'432'
'32768_'
'324_'
'2x1'
'2P_'
'2D'
'2800'
'254'
'24TC_'
'1OC768_'
'1GbE_'
'1AE_'
'1550Tx_'
'1535_'
'152'
'12816_'
'124'
'117'
'10g_'
'1080p'
'106'
'1005_'
'024_'
'019_'
'. \\ _'
'.'
'' , ' '
' } " '
' \\ " { _'
' < < _'
' . / _'
' - % _'
' ) % '
'zeroes_'
'yp'
'yc'
'wre'
'weights_'
'weigh'
'weakness_'
'wa_'
'volunteers_'
'viewalldeals_'
'vest'
'vServer_'
'vSearch_'
'v2c_'
'unusable_'
'unne'
'uncommitted_'
'unacceptable_'
'ulated_'
'twist'
'tt_'
'triggering_'
'terminations_'
'tand'
'tP'
'synchronizing_'
'syn'
'surprise_'
'summer_'
'summ'
'staffs_'
'spreading_'
'south_'
'sit'
'segregate'
'seed_'
'rn_'
'rin'
'rica'
'resum'
'reselling_'
'reschedule_'
'rene'
'remo'
'reminders_'
'ral'
'querying_'
'pun'
'pru'
'proving_'
'proud_'
'professor_'
'pps_'
'pooled_'
'pl_'
'pinouts_'
'peri'
'opt'
'open'
'ook_'
'ok'
'ody_'
'occupied_'
'num_'
'ns74'
'north_'
'nect'
'neat'
'nameserver_'
'nC'
'multiplexer_'
'msg_'
'motivated_'
'mos'
'mon_'
'moderators_'
'memberships_'
'mb_'
'maximized_'
'main'
'lunch_'
'lev'
'kee'
'isco'
'ipa'
'ious_'
'invitees_'
'interview'
'instant'
'infra_'
'ind'
'ians_'
'hs_'
'holiday_'
'hair'
'gz'
'guard'
'grounds_'
'greenfield_'
'glossary_'
'fri'
'fi_'
'fear_'
'facilitation_'
'expedited_'
'enda'
'emphasizes_'
'embraced_'
'eight'
'dy'
'ducti'
'disappears_'
'desires_'
'depletion_'
'delimiter_'
'deeply_'
'deadlines_'
'damaging_'
'creen_'
'crash_'
'correlates_'
'corp_'
'contra'
'connect'
'conclude_'
'compromises_'
'complicate'
'colons_'
'circ'
'chips_'
'briefing_'
'blank'
'billed_'
'benchmarking_'
'bearing_'
'ay'
'ava'
'assuring_'
'ang'
'analyzers_'
'aisle_'
'Zon'
'Za'
'XG_'
'Wu'
'Webroot_'
'WAN'
'Upside_'
'Unl'
'Unb'
'UND'
'Trying_'
'Toll_'
'Timely_'
'Thinking_'
'Targets_'
'Tabular_'
'TDMs_'
'Sydney_'
'Strengthen'
'Stories_'
'Staging_'
'Southeast_'
'Slo'
'Skinny_'
'Sei'
'SR4_'
'SPID'
'SAMT_'
'SAC_'
'Restoring_'
'Request'
'Req_'
'Redefin'
'RV120W_'
'ROA'
'RATI'
'RATE_'
'Qualifications_'
'Qt'
'QUAD_'
'Printing_'
'Preserv'
'Place'
'Partic'
'Pan_'
'Pack'
'PSS03'
'PG'
'Oro_'
'OE'
'Nexus'
'NetM'
'NN'
'Ms'
'Mov'
'Mobile'
'Metropolitan_'
'Maximizing_'
'Macro'
'MLBAM_'
'MIN'
'MDS9'
'MCS7835_'
'Loops_'
'Logon_'
'LO_'
'Kr'
'JAPAN_'
'Island_'
'Instruction_'
'Imperatives_'
'Ike_'
'ITU1'
'ISM'
'ISC'
'IPBase_'
'IL_'
'IGPs_'
'ICA'
'IBMX346_'
'IAD2431_'
'Heat_'
'Heat'
'Hard'
'Hand'
'HERE_'
'Greetings_'
'Greece_'
'Govern'
'Georgia_'
'Gary_'
'GU'
'GIF_'
'Flooding_'
'Feat_'
'Fac'
'Em'
'Eli'
'Efficiently_'
'EAPOL_'
'Dyn'
'Dollar_'
'Divide_'
'Demonstrations_'
'Decline_'
'Dan'
'DOA_'
'DCS'
'Covers_'
'Counts_'
'Contribution_'
'Contr_'
'Connectionless_'
'Complementary_'
'Compl'
'Coaxial_'
'Cent'
'Capital'
'CTIManager_'
'CRO1_'
'CPT'
'CFS_'
'CCC'
'CAFE_'
'Buyers_'
'Broadest_'
'Broade'
'Broadcasts_'
'Brian_'
'Branding_'
'BYOD'
'BX'
'BQM_'
'BOLD_'
'BAT_'
'AuthZ_'
'Audio'
'Audible_'
'AnyCompany1_'
'Andre'
'Accepts_'
'ANZ_'
'ACC_'
'AB_'
'9999_'
'8G'
'794'
'7931G_'
'750W_'
'729'
'6t'
'553_'
'502'
'4H'
'440_'
'2SFP_'
'2R'
'2PREs_'
'1994_'
'16P'
'160'
'1538_'
'143_'
'124_'
'10m_'
'0R'
'0DB8_'
' } ' _'
' \\ :_'
' ... ”_'
' # # '
'where'
'webpages_'
'webca'
'warn_'
'vpndevc_'
'vin'
'unplug_'
'unified'
'unders'
'unauthorised_'
'uk'
'ucs'
'uBR10012_'
'tter'
'truct'
'tru'
'triage_'
'transpo'
'timestamps_'
'tim'
'threaded_'
'tende'
'talkers_'
'take'
'surround'
'sup_'
'strand_'
'specializ'
'some'
'smi'
'sig'
'shel'
'servicedescriptions_'
'ser'
'senses_'
'scho'
'safe'
'sL'
'rra'
'rr'
'router'
'rob'
'rge'
'retiring_'
'rer'
'reps_'
'reloading_'
'rain'
'radical_'
'pss_'
'profitably_'
'profile'
'prob'
'pretested_'
'preempt_'
'predict'
'por'
'persistence_'
'perceptions_'
'par'
'pads_'
'overwhelming_'
'ort'
'oral_'
'nurses_'
'ns1'
'noti'
'norm_'
'nge'
'namely_'
'multiplied_'
'master'
'mandated_'
'mailto_'
'lectures_'
'kt_'
'knowledge'
'kl'
'issue'
'inviting_'
'inventi'
'internetworks_'
'intends_'
'innovating_'
'ind_'
'ility'
'hoot'
'honored_'
'greenhouse_'
'google_'
'gatekeeper_'
'gage_'
'furniture_'
'from'
'form'
'forge'
'fire'
'feature'
'far'
'explosive_'
'explored_'
'evidenced_'
'evenly_'
'envision_'
'encodes_'
'ego'
'eagle1_'
'drain_'
'dots_'
'domain'
'dit'
'diss'
'dal'
'cybercrime_'
'cultures_'
'crypto'
'creativity_'
'cr'
'coursew'
'consum'
'compile_'
'committing_'
'col'
'classifying_'
'chunk'
'cape'
'cancell'
'bro'
'blur'
'blow'
'blo'
'bin'
'battle_'
'authorizes_'
'atleast_'
'approvers_'
'appro'
'amendment_'
'Wifi_'
'Well'
'Weak_'
'Watch'
'WSM_'
'WRS3_'
'Virginia_'
'Upl'
'Unsu'
'Typ'
'Turning_'
'Transparently_'
'Translated_'
'Toronto_'
'Tape_'
'TIN'
'TH_'
'TFO_'
'Sustain'
'Sticky_'
'Statically_'
'Standardized_'
'Spotlight_'
'Ski'
'Situation_'
'Sil'
'ServiceGrid_'
'Seoul_'
'Search'
'Seamlessly_'
'Scoring_'
'Sarbanes_'
'Santa_'
'STB_'
'START'
'SSP'
'SQL2K_'
'SIMPLE_'
'SCH_'
'S6'
'Rpt'
'Ret_'
'Responding_'
'Respond'
'Reso'
'Remediation_'
'Regulat'
'Ref_'
'Recognizing_'
'Reca'
'Rc'
'Ran'
'RECEIVER_'
'Qual'
'Prov_'
'Pricelist_'
'Prerequisites_'
'Portugal_'
'Populating_'
'Pol'
'Podcast'
'Playing_'
'Phoenix_'
'Pet'
'Perspectives_'
'Perfect_'
'PVLAN_'
'PTR_'
'PLS'
'PLAY'
'PFC'
'Oxley_'
'Operates_'
'Ohm_'
'OW_'
'OVER'
'OSP_'
'NX'
'NUM'
'NCI'
'Modification_'
'Mega'
'MeetMe_'
'Mandarin_'
'Manchester_'
'MWR_'
'MR_'
'MIN_'
'MINI_'
'Log'
'Lock'
'Locating_'
'Liu_'
'Lim_'
'Lessons_'
'Lenovo_'
'Lab'
'LS1010_'
'LOCAL_'
'LGD_'
'LAST_'
'L7_'
'L6_'
'Jones_'
'Jitter_'
'Invi'
'Interpret'
'Interf'
'Infra'
'Indeed_'
'ITU28_'
'ISS_'
'ISG_'
'IMA_'
'ICE'
'Gs_'
'Greenfield_'
'Got'
'Freight_'
'Forbes_'
'Fle'
'Few_'
'FACTORY_'
'FACILITATOR_'
'F1_'
'Essentially_'
'Electromagnetic_'
'Easy'
'EVM_'
'EUQ_'
'ECTI'
'E9'
'Domestic_'
'Documenting_'
'Directions_'
'Detects_'
'Derived_'
'DMPs_'
'D2_'
'Cy'
'Customs_'
'Cust'
'Cookie_'
'Contest_'
'Conn'
'Confirmed_'
'Conclusion_'
'Complimentary_'
'Compli'
'Colle'
'Centrally_'
'CST_'
'CSP_'
'COS'
'CONTINU'
'CISCO2'
'CIPC_'
'CHS'
'CES'
'CAP_'
'C6'
'Burst_'
'Builders_'
'Budget'
'Bribery_'
'Bou'
'BIC_'
'BG_'
'Arabia_'
'Anything_'
'Answered_'
'Analys'
'Amp'
'Agnt_'
'Adjustment_'
'Ade'
'ATT'
'ASSE'
'ARS_'
'ACTION_'
'AAR_'
'A9'
'9506_'
'9216_'
'850nm_'
'7845I'
'7825I_'
'6B_'
'65MHz_'
'6509E_'
'648_'
'6215_'
'5K'
'5Gbps_'
'5C'
'568'
'555_'
'5548P_'
'5400zl_'
'506'
'4XIB_'
'4954_'
'4948E_'
'485_'
'449_'
'423'
'40oC_'
'3dB_'
'36G'
'313'
'2s_'
'2p'
'2O'
'2DC'
'2600XM_'
'24X7X2OS_'
'1xR'
'1x1'
'185_'
'16x'
'16prt_'
'1560_'
'1555_'
'1554_'
'1000B'
'' ._'
'$_'
' ] ) $_'
' : ‘ _'
' : ^ ( ( _'
' : \\ " '
' : / _'
' : / / '
' ......'
' , * '
' ) { _'
' ( . * )_'
' ( $ ' _'
' ! )_'
'zoning_'
'yS'
'white'
'whe'
'wear_'
'wd'
'wallpaper_'
'void_'
'unregistered_'
'unpro'
'ult_'
'ular'
'u '
'trustworthy_'
'tokens_'
'till_'
'thermal_'
'territories_'
'tedious_'
'tan_'
'surpass'
'successive_'
'strips_'
'stimul'
'specialty_'
'spec'
'solution'
'simulates_'
'sic'
'services'
'separator_'
'scan'
'sSe'
'sI'
'run'
'root'
'rolls_'
'rollouts_'
'rly_'
'right'
'rich'
'restaurant_'
'resist'
'recreate_'
'ray_'
'rar'
'rails_'
'purge_'
'pulldown_'
'ps5718_'
'promised_'
'prohibits_'
'prioritizes_'
'prin'
'preinstalled_'
'pocket_'
'pleas'
'planners_'
'penalty_'
'pat'
'pad'
'okay_'
'oin'
'ogi'
'offloaded_'
'od'
'now'
'nominated_'
'nica'
'nexus'
'navigat'
'nat'
'nI'
'mz_'
'multit'
'mpt'
'mpps_'
'mod'
'mixture_'
'mim'
'mg'
'memora'
'markings_'
'male_'
'mGRE_'
'lled_'
'ling'
'lifespan_'
'land'
'island_'
'isc'
'invitee_'
'inu'
'installers_'
'innovators_'
'influencing_'
'imit'
'horses_'
'hl'
'hem'
'hat'
'han'
'ha_'
'gro'
'gree'
'grayed_'
'fun'
'flaw'
'fin'
'favors_'
'extracted_'
'extra'
'exposing_'
'explanations_'
'emulator_'
'em_'
'els_'
'een_'
'edi'
'eck'
'eat_'
'ea_'
'dmin'
'dles'
'dimension_'
'dim'
'diagnosing_'
'diag'
'dh'
'descending_'
'demarc_'
'deli'
'decommission'
'dan'
'current'
'cuc'
'cture_'
'crack'
'continents_'
'constructs_'
'consi'
'consequently_'
'clusterconfig_'
'cks_'
'circumvent_'
'chest'
'chars_'
'chal'
'centrifuge_'
'cea'
'camp_'
'bypasses_'
'business'
'aw'
'aver'
'ature_'
'aro'
'applications'
'amongst_'
'amend_'
'accommodating_'
'abstract_'
'able'
'\ '
'WRS_'
'WIM_'
'WILL_'
'WA_'
'Validat'
'VR_'
'VPN300'
'UserOptions_'
'Unrestricted_'
'Unmatched_'
'Undo_'
'UPDATE'
'Transf'
'Thi'
'Theme_'
'Tftp'
'Team'
'TN'
'THE'
'TEMP'
'T5'
'T0'
'Surveys_'
'Sup32_'
'Suitable_'
'Subs'
'Sony_'
'Song'
'SmartPorts_'
'SmartNet_'
'Sky'
'Single'
'Simplex_'
'Sgl_'
'Serial2_'
'Seg'
'Seed_'
'Se_'
'Screening_'
'STEP_'
'SMOA_'
'SHALL_'
'Rows_'
'Reqs_'
'Rei'
'Regulation_'
'Refu'
'Recognize_'
'Recents_'
'Rec_'
'Real'
'Reactive_'
'RV1'
'REP'
'REFER'
'RCVR_'
'RACK_'
'Prox'
'Proliferation_'
'Proc'
'ProCurve_'
'Prize_'
'Privileges_'
'Predictive_'
'Planned_'
'Phases_'
'PROF'
'POOL_'
'PDA_'
'PARTY_'
'P2'
'Overlap'
'Ok_'
'ORS_'
'Neu'
'NORT'
'N7K_'
'Myself_'
'Mul'
'Mode'
'Miscellaneous_'
'Mig'
'Meridian_'
'Memorandum_'
'Marking_'
'MXE_'
'MPEG4_'
'MPEG2_'
'ML_'
'MANAGEMENT_'
'LiveAction_'
'LRM_'
'LCMB_'
'Kilo'
'Kar'
'Kan'
'KNOW'
'Join'
'Jigsaw_'
'Jia'
'Impro'
'Illustrat'
'IST'
'IRB_'
'IEEE802_'
'ICND_'
'ICI'
'IAL_'
'Haz'
'HWICs_'
'HRMS_'
'HAS_'
'Guests_'
'Grp'
'Grouping_'
'Gives_'
'Gets_'
'Gard'
'Gai'
'GUI'
'GSR12'
'GCI_'
'Fundamental_'
'Fulfilling_'
'Fortinet_'
'FY09_'
'Extensi'
'Expan'
'Ev'
'Escalate_'
'Encapsulating_'
'Eff'
'EditDial_'
'ERA_'
'ENTI'
'EFEC_'
'Dolby_'
'Distribut'
'Disclosure_'
'Dim'
'Detecti'
'Designation_'
'Descript'
'Defe'
'Ded'
'Dar'
'DVSwitch_'
'DPC2'
'DPC'
'D9846_'
'Coordinate'
'Conversely_'
'Control'
'Cond'
'Communi'
'Collaborate'
'CoPP_'
'Cntrl_'
'CiscoUnified'
'Cisco888_'
'Champion'
'Caution_'
'Cat6500_'
'Care'
'CWDM15'
'CVM'
'CUMC_'
'CTIO'
'CSC'
'CRBR_'
'COLLABORATION_'
'CODE_'
'CNS'
'CLP_'
'CH33_'
'CENTER_'
'CATEGORY2_'
'Bullet'
'Buffer'
'Brief'
'Brand'
'Box'
'Bordeaux_'
'Blue'
'Binding_'
'Bind'
'Becoming_'
'Barriers_'
'Authenticati'
'Attaching_'
'AtHoc_'
'Ak'
'Advance'
'APP'
'8x_'
'864'
'860_'
'6M_'
'613_'
'5X_'
'424'
'410_'
'401_'
'3270_'
'305'
'24X7_'
'2022_'
'1xS'
'171'
'161'
'1532'
'141'
'132_'
'121_'
'11N_'
'1120_'
'1100'
'10M'
'.._'
'$ -_'
' @ '
' = ) '
' : \\ '
' / ( _'
' + ) , _'
' ) ] '
'ystems_'
'yed_'
'yearly_'
'x2'
'wouldn_'
'vate'
'vas'
'vCPU_'
'urn'
'unresponsive_'
'typ'
'turnaround_'
'ttle_'
'triangle_'
'touchscreens_'
'touch'
'tics_'
'sys'
'subs'
'subdivi'
'stro'
'streamed_'
'stone_'
'stationary_'
'ssed_'
'spr'
'spool_'
'spike_'
'spell'
'soci'
'sm'
'skip'
'shr'
'selectable_'
'segmenting_'
'sdm_'
'salesperson_'
'rtu'
'rsa'
'routinely_'
'rounded_'
'robin_'
'rid_'
'respects_'
'repro'
'rep_'
'reg_'
'recruitment_'
'recertification_'
'rece'
'reacti'
'ratified_'
'rad'
'querier_'
'pseudo'
'ps9441_'
'protect'
'proc'
'pris'
'pop'
'parks_'
'owe'
'overlaps_'
'ound'
'origination_'
'oph'
'omm'
'oma'
'nz'
'nwi'
'number'
'nue'
'note'
'normalized_'
'nons'
'nge_'
'name'
'nac'
'multigigabit_'
'multic'
'moral'
'miss'
'mil'
'mark'
'manufacture_'
'mailed_'
'lug_'
'lti'
'lte'
'lifting_'
'lg'
'kr'
'kle'
'king'
'kilo'
'keyboards_'
'ition_'
'isk'
'isa'
'ions'
'interd'
'insure_'
'institute'
'instantiated_'
'inspections_'
'ina_'
'impede'
'ident'
'hy'
'horse_'
'hon'
'hijack'
'greet'
'grab'
'gne'
'global'
'ght'
'geno'
'fter_'
'frustration_'
'four'
'fixing_'
'first'
'fibre_'
'export'
'estimating_'
'ese'
'ering_'
'eras'
'ener'
'emoticon_'
'emi'
'dissatisf'
'disassociate_'
'dg'
'destr'
'deskphone_'
'dependence_'
'declared_'
'danger_'
'crowd'
'cop'
'contest_'
'constructing_'
'conservative_'
'consensus_'
'confused_'
'cluster'
'classifier'
'chemical_'
'cef'
'cater'
'cafe'
'caches_'
'bulletin_'
'broadcasters_'
'bo_'
'blacklist_'
'atmosphere_'
'asa_'
'arranged_'
'antispam_'
'ans_'
'anomaly_'
'amplification_'
'ampli'
'alerted_'
'ach'
'ace'
'accomplishes_'
'abstracti'
'aban_'
'Zu'
'Zhang_'
'You'
'Won'
'Win2003_'
'WebE'
'Warn'
'War_'
'Wake_'
'WOR'
'WIPS_'
'Vis'
'Variety_'
'Valuable_'
'Update'
'Unregistered_'
'Univer_'
'Unifying_'
'UCSE_'
'Traps_'
'Transi'
'Thousands_'
'Think'
'Temp'
'TOOL'
'TER_'
'Swi'
'Suspend_'
'SugarCRM_'
'Stops_'
'Stopped_'
'Steering_'
'Sin'
'Serbia'
'Scott_'
'SUN_'
'SSM'
'SPE1'
'SNR_'
'SIEM_'
'SEN'
'SEA'
'SAV'
'RouterC_'
'Roman'
'Returning_'
'Resp'
'Res_'
'Reinsta'
'Recon'
'Ranking_'
'RTR'
'RAP_'
'Question'
'Pwr'
'Process'
'Preserve_'
'Predefined_'
'Practic'
'Popup_'
'Pop'
'Plate_'
'Phishing_'
'PhD_'
'Petro'
'Peter_'
'Permits_'
'Pearson_'
'Pat'
'PW_'
'PPI_'
'PARTI'
'P4_'
'Overload_'
'Os'
'Occur'
'Netw'
'Navi'
'NR_'
'NCPs_'
'Multiuser_'
'Mont'
'Mobil'
'Meta'
'MegaRAID_'
'Maxim'
'Mappe'
'MSI_'
'MSFC2_'
'Lics_'
'Las'
'LIABILITY_'
'LELA_'
'KT'
'KR_'
'K3_'
'Justification_'
'Ironport_'
'Invoicing_'
'Introduct'
'Intern_'
'Interested_'
'Institutions_'
'Initialize_'
'Informational_'
'Inefficient_'
'IU'
'IKEv2_'
'HyperV_'
'HK'
'Geography_'
'GIN'
'GH'
'GG'
'GEN'
'Food_'
'Fli'
'Features'
'Fea'
'FIN'
'Express'
'Evidence_'
'Educate_'
'EXE'
'ELA'
'Dutch_'
'Downloadable_'
'Dest'
'Deletes_'
'Del_'
'DROther'
'DLUs_'
'DB9_'
'Coo'
'Configs_'
'Compl_'
'Classifie'
'Clari'
'Chap'
'Change'
'Centraliz'
'Cat4500_'
'Cat3'
'CTR'
'CETC_'
'C90_'
'C9'
'Bound'
'Bounced_'
'Block'
'Bla'
'Barr'
'Backward_'
'BUL'
'BEL'
'BCC_'
'Ava'
'AutoSupport_'
'Auth'
'Assumptions_'
'Ass'
'AsiaPac_'
'Arizona_'
'Architects_'
'Approvals_'
'Ang'
'Altitude_'
'Ale'
'Addressable_'
'Adams_'
'AXSM_'
'AW'
'AC3_'
'8880_'
'7914_'
'7828'
'7815I_'
'712'
'7024D_'
'6V'
'628'
'5MM'
'4x146_'
'404_'
'375_'
'370W_'
'3504_'
'32769_'
'2TXL_'
'2E_'
'2A_'
'2700_'
'268'
'250V_'
'232'
'230V_'
'213'
'2106_'
'208_'
'200G'
'1SHDSL_'
'186_'
'16pt_'
'16F'
'161_'
'151_'
'1150'
'109_'
'1023_'
'1006'
'08EM_'
'0800_'
'0001_'
' ? ?_'
' = { _'
' : )_'
' * * # _'
' ) , '
' ) * '
' ( + _'
' ' . _'
'ya_'
'wk'
'websafe_'
'wearable_'
'uninstall'
'ument'
'tunneled_'
'tter_'
'too'
'tol'
'ti_'
'thi'
'tends_'
'sun'
'subdomain'
'subcontractors_'
'stic'
'stance_'
'stan_'
'spring_'
'spect'
'specs_'
'sn_'
'skus_'
'skin_'
'silence_'
'sign'
'sharp_'
'serial0_'
'sea'
'sCon'
's2_'
'routines_'
'revisit_'
'retransmitted_'
'resel'
'reopen_'
'rendezvous_'
'rej'
'redi'
'redesigned_'
'redefining_'
'recruit_'
'reapp'
'rage'
'r6_'
'quotation_'
'quantifiable_'
'put'
'pub'
'proliferat'
'proceeds_'
'prefers_'
'predominant_'
'prea'
'plugging_'
'plan'
'place'
'pioneered_'
'phy'
'phere_'
'pher'
'persist_'
'overlook'
'overcoming_'
'ono'
'ociat'
'oE_'
'nx'
'noticeable_'
'nis_'
'ni_'
'nate'
'museum'
'momentar'
'mo_'
'minat'
'microb'
'mediation_'
'max'
'mandate_'
'macro'
'licence_'
'li_'
'lau'
'lateral'
'kiosk_'
'kin'
'kilobytes_'
'kick'
'ki_'
'keychain_'
'izes_'
'itable_'
'ionS'
'intri'
'intrac'
'inti'
'interrupting_'
'internship_'
'instrumental_'
'ings'
'inconsistencies_'
'imped'
'id'
'iat'
'iS'
'hre'
'homed_'
'hers'
'gradua'
'gg'
'gers_'
'gation_'
'ga_'
'fraudulent_'
'farther_'
'exemption_'
'everybody_'
'evaluations_'
'ep_'
'engages_'
'ella'
'elevate_'
'dock_'
'discontinue_'
'diligence_'
'device'
'depl'
'cyclic_'
'cutover_'
'cumbersome_'
'cris'
'coup'
'cou'
'confront'
'confined_'
'companywide_'
'circles_'
'cf'
'ced_'
'cations_'
'bur'
'bright'
'bp'
'binds_'
'beaut'
'appe'
'airlines_'
'adher'
'a3'
'Xen'
'XGA_'
'Workflows_'
'Wndw_'
'WIRELESS_'
'Var'
'VPI_'
'VD_'
'Upgr_'
'Uncompromised_'
'UNSC_'
'UNIVERSAL_'
'UCCS_'
'Transformati'
'TelePresenceTM_'
'Subs_'
'Spot_'
'Skill'
'Shorten_'
'Seventy_'
'Seconds_'
'Screen'
'Satisfied_'
'SRX_'
'SPARC_'
'SP2_'
'SN5428_'
'SKI'
'SID'
'SCR'
'Runs_'
'River_'
'Resource'
'Repr'
'Regarding_'
'Reflexive_'
'Reflection_'
'Rd'
'RS232_'
'RO_'
'ROADM_'
'REDU'
'READ'
'Que'
'Qua'
'QSIG_'
'QR'
'Programm'
'Profits_'
'Prioritiz'
'Principle'
'Primarily_'
'Postcard_'
'Portability_'
'PortChannels_'
'Polish_'
'PPPoA_'
'PHONE_'
'PDR11'
'PB_'
'Overs'
'Outd'
'Obama_'
'Normalization_'
'NVR'
'NPS_'
'NL'
'NER'
'Moved_'
'Monte'
'Mad'
'MSRP_'
'MOBILE_'
'MJPEG_'
'MIT'
'M2'
'Lowered_'
'Lo0_'
'Lice'
'LT_'
'LSR_'
'LOBCH_'
'L2VPN_'
'JRE_'
'Iron'
'Intermed'
'Intelli'
'Indi'
'Incu'
'IRO'
'IPConferenceStation_'
'Holds_'
'Hol'
'Hit'
'HPDL380_'
'HEA'
'HC_'
'Guanghua_'
'Gigab'
'Gh'
'GW'
'Fuji'
'Freedom_'
'Fred'
'Fragment'
'FireAMP_'
'Filter'
'Fig'
'Fen'
'FY10_'
'FY1'
'FREE_'
'FEAT_'
'FAS_'
'Extract_'
'Explosi'
'Evolved_'
'Ep'
'Encrypt'
'Eliminating_'
'Electro'
'Dtop_'
'Diagnose_'
'Dependency_'
'Dele'
'Deepe'
'DIN_'
'Cultural_'
'Couldn_'
'Corr_'
'Coordinate_'
'Constraints_'
'Congress_'
'CompactFlash_'
'Communications'
'Cluster'
'Clip_'
'Cat6'
'Cap'
'CX4_'
'CVP'
'CLA'
'CISCO17'
'CIM_'
'CCX'
'CALL_'
'C6503_'
'C192'
'Broker_'
'Board'
'Bl'
'Bid'
'Benchmarking_'
'Avago_'
'Art_'
'Ama'
'Algo'
'Aggregat'
'Agencies_'
'Affect'
'Advocacy_'
'Administration'
'Actively_'
'Actionable_'
'Accessible_'
'ARP'
'AP5'
'AIP40_'
'AGC4'
'ADDON_'
'ACCO'
'8i_'
'8941_'
'797'
'7204VXR_'
'61850_'
'606'
'5th_'
'5P'
'5596_'
'4HDD_'
'48G'
'3550_'
'332'
'311'
'300GB_'
'2x10'
'2700'
'260_'
'230'
'2208'
'20x'
'20000'
'1b_'
'1M'
'1530'
'12SD_'
'10Mb'
'108'
'0A_'
'012'
'... '
'# $ % '
' : < _'
' , “ '
' * * *_'
'~ $ _'
'yu'
'yte_'
'x20'
'wri'
'workday_'
'willingness_'
'whi'
'whatsoever_'
'western_'
'wards_'
'vu'
'visi'
'violates_'
'village'
'verse'
'utin'
'understandable_'
'truck_'
'trou'
'transi'
'tore_'
'tha'
'tertiary_'
'televisions_'
'teen_'
'technologi'
'tail'
'sym'
'swapping_'
'suppress'
'superadmin_'
'subcategor'
'studio_'
'stuck_'
'statistic_'
'sre'
'splitting_'
'spectral_'
'spar'
'son'
'sniffing_'
'smoother_'
'situational_'
'sink'
'simulating_'
'simpl'
'shops_'
'settle'
'seminars_'
'scoped_'
'sary_'
'san'
'rme'
'rk_'
'rim'
'rf'
'retai'
'repeater_'
'remind'
'reinvent_'
'refused_'
'recip'
'rative_'
'qty_'
'publici'
'provi'
'promiscuous_'
'prof'
'prepa'
'preferential_'
'pplication'
'pos'
'pol'
'pkg_'
'php_'
'perfectly_'
'patch'
'parse'
'pa_'
'overr'
'omic'
'oct'
'nis'
'networks'
'ndl'
'nch'
'naut'
'nE'
'nCisco_'
'mus'
'municipalities_'
'multiplex'
'motivate_'
'math_'
'lou'
'looped_'
'litera'
'lighte'
'liat'
'leg'
'ldap_'
'lati'
'lac'
'kill'
'ited_'
'invoiced_'
'investigated_'
'intersection_'
'ining_'
'ian'
'hyper'
'hori'
'hextet_'
'haus'
'hall_'
'ggl'
'genc'
'fonts_'
'fies_'
'ffer'
'fer'
'fat'
'f0_'
'exploitation_'
'equa'
'ept'
'entitles_'
'eno'
'encl'
'encapsulations_'
'embedding_'
'eable_'
'eDirectory_'
'dress_'
'draws_'
'drawbacks_'
'dp_'
'dor'
'disturb'
'dist'
'disagree_'
'default'
'dding_'
'dd_'
'craft'
'corr'
'convince_'
'conferenced_'
'conceptual_'
'composition_'
'competent_'
'commonplace_'
'commit'
'commission_'
'comment'
'collectors_'
'coll'
'coherent_'
'cloth'
'cket'
'cascading_'
'build'
'brokers_'
'born_'
'boosts_'
'boardroom_'
'bil'
'autom'
'augmented_'
'attributed_'
'attitudes_'
'attained_'
'asc'
'arm'
'apac'
'ande'
'amplitude_'
'amplifiers_'
'altering_'
'alleviat'
'ae'
'abnormal_'
'X5'
'X206_'
'Works'
'Whiteboard_'
'WebS'
'Warrior_'
'Wang_'
'WR_'
'WN'
'VWIC2_'
'VIEW_'
'V7_'
'Unp'
'UNC'
'Trnsfer_'
'Trademark_'
'Tim_'
'Thought_'
'Telework_'
'Tai'
'TEN'
'TEM_'
'Sunday_'
'Streamlin'
'State'
'Sports_'
'Sponsors'
'SolutionExpert_'
'Solicitation_'
'Soci'
'Sever'
'Selectable_'
'Secures_'
'SYSTEMS_'
[...]
